{"<s>":0,"<pad>":1,"</s>":2,"<unk>":3,"<mask>":4,"!":5,"\"":6,"#":7,"$":8,"%":9,"&":10,"'":11,"(":12,")":13,"*":14,"+":15,",":16,"-":17,".":18,"/":19,"0":20,"1":21,"2":22,"3":23,"4":24,"5":25,"6":26,"7":27,"8":28,"9":29,":":30,";":31,"<":32,"=":33,">":34,"?":35,"@":36,"A":37,"B":38,"C":39,"D":40,"E":41,"F":42,"G":43,"H":44,"I":45,"J":46,"K":47,"L":48,"M":49,"N":50,"O":51,"P":52,"Q":53,"R":54,"S":55,"T":56,"U":57,"V":58,"W":59,"X":60,"Y":61,"Z":62,"[":63,"\\":64,"]":65,"^":66,"_":67,"`":68,"a":69,"b":70,"c":71,"d":72,"e":73,"f":74,"g":75,"h":76,"i":77,"j":78,"k":79,"l":80,"m":81,"n":82,"o":83,"p":84,"q":85,"r":86,"s":87,"t":88,"u":89,"v":90,"w":91,"x":92,"y":93,"z":94,"{":95,"|":96,"}":97,"~":98,"¡":99,"¢":100,"£":101,"¤":102,"¥":103,"¦":104,"§":105,"¨":106,"©":107,"ª":108,"«":109,"¬":110,"®":111,"¯":112,"°":113,"±":114,"²":115,"³":116,"´":117,"µ":118,"¶":119,"·":120,"¸":121,"¹":122,"º":123,"»":124,"¼":125,"½":126,"¾":127,"¿":128,"À":129,"Á":130,"Â":131,"Ã":132,"Ä":133,"Å":134,"Æ":135,"Ç":136,"È":137,"É":138,"Ê":139,"Ë":140,"Ì":141,"Í":142,"Î":143,"Ï":144,"Ð":145,"Ñ":146,"Ò":147,"Ó":148,"Ô":149,"Õ":150,"Ö":151,"×":152,"Ø":153,"Ù":154,"Ú":155,"Û":156,"Ü":157,"Ý":158,"Þ":159,"ß":160,"à":161,"á":162,"â":163,"ã":164,"ä":165,"å":166,"æ":167,"ç":168,"è":169,"é":170,"ê":171,"ë":172,"ì":173,"í":174,"î":175,"ï":176,"ð":177,"ñ":178,"ò":179,"ó":180,"ô":181,"õ":182,"ö":183,"÷":184,"ø":185,"ù":186,"ú":187,"û":188,"ü":189,"ý":190,"þ":191,"ÿ":192,"Ā":193,"ā":194,"Ă":195,"ă":196,"Ą":197,"ą":198,"Ć":199,"ć":200,"Ĉ":201,"ĉ":202,"Ċ":203,"ċ":204,"Č":205,"č":206,"Ď":207,"ď":208,"Đ":209,"đ":210,"Ē":211,"ē":212,"Ĕ":213,"ĕ":214,"Ė":215,"ė":216,"Ę":217,"ę":218,"Ě":219,"ě":220,"Ĝ":221,"ĝ":222,"Ğ":223,"ğ":224,"Ġ":225,"ġ":226,"Ģ":227,"ģ":228,"Ĥ":229,"ĥ":230,"Ħ":231,"ħ":232,"Ĩ":233,"ĩ":234,"Ī":235,"ī":236,"Ĭ":237,"ĭ":238,"Į":239,"į":240,"İ":241,"ı":242,"Ĳ":243,"ĳ":244,"Ĵ":245,"ĵ":246,"Ķ":247,"ķ":248,"ĸ":249,"Ĺ":250,"ĺ":251,"Ļ":252,"ļ":253,"Ľ":254,"ľ":255,"Ŀ":256,"ŀ":257,"Ł":258,"ł":259,"Ń":260,"Ġt":261,"he":262,"Ġa":263,"ou":264,"Ġs":265,"Ġm":266,"in":267,"Ġw":268,"re":269,"ha":270,"nd":271,"Ġthe":272,"Ġb":273,"is":274,"or":275,"Ġf":276,"er":277,"ll":278,"it":279,"on":280,"Ġd":281,"Ġc":282,"es":283,"en":284,"Ġn":285,"Ġl":286,"Ġy":287,"Ġth":288,"ar":289,"Ġh":290,"Ġo":291,"Ġto":292,"Ġyou":293,"Ġp":294,"hat":295,"ĠI":296,"Ġhe":297,"ve":298,"ot":299,"st":300,"Ġand":301,"ow":302,"ing":303,"an":304,"Ġof":305,"om":306,"Ġg":307,"at":308,"Ġbe":309,"se":310,"Ġmy":311,"Ġin":312,"ce":313,"Ġha":314,"le":315,"ay":316,"ld":317,"ir":318,"et":319,"ed":320,"ut":321,"Ġme":322,"im":323,"ith":324,"'s":325,"Ġnot":326,"ch":327,"Ġthat":328,"Ġis":329,"gh":330,"And":331,"Ġfor":332,"ke":333,"Ġu":334,"our":335,"Ġwe":336,"oo":337,"ill":338,"Ġe":339,"her":340,"Ġwith":341,"ent":342,"Ġit":343,"Ġyour":344,"ad":345,"ri":346,"Ġthou":347,"Ġst":348,"'d":349,"Ġk":350,"ome":351,"Ġhis":352,"ght":353,"EN":354,"ord":355,"id":356,"The":357,"as":358,"Ġre":359,"Ġhave":360,"IN":361,"ly":362,"ra":363,"Ġli":364,"Ġhim":365,"ur":366,"Ġthis":367,"al":368,"IO":369,"Ġso":370,"Ġas":371,"Ġde":372,"Ġon":373,"ore":374,"ro":375,"AR":376,"hi":377,"ould":378,"ood":379,"ck":380,"ain":381,"ver":382,"est":383,"Ġthy":384,"Ġsha":385,"ess":386,"ea":387,"Ġdo":388,"Ġwill":389,"am":390,"Ġno":391,"Ġbut":392,"us":393,"and":394,"US":395,"if":396,"Ġse":397,"ge":398,"Th":399,"Ġall":400,"ake":401,"Ġsu":402,"To":403,"Ġher":404,"ru":405,"ion":406,"th":407,"Ġan":408,"ter":409,"ard":410,"Ġlo":411,"han":412,"ell":413,"ear":414,"Ġsp":415,"Ġthee":416,"Ġour":417,"Ġfa":418,"Ġshall":419,"Ġby":420,"UC":421,"il":422,"Ġare":423,"ING":424,"ĠC":425,"rom":426,"Ġne":427,"ho":428,"Ġkn":429,"AN":430,"ĠR":431,"That":432,"Ġv":433,"ER":434,"OR":435,"ast":436,"ct":437,"ous":438,"Ġwhat":439,"ight":440,"Ġsh":441,"ul":442,"ET":443,"Ġ'":444,"ant":445,"ES":446,"Ġup":447,"sel":448,"qu":449,"But":450,"art":451,"Ġgood":452,"row":453,"ine":454,"ath":455,"Ġlord":456,"hich":457,"nt":458,"ust":459,"'ll":460,"one":461,"Ġpr":462,"Ġcom":463,"Ġat":464,"Ġman":465,"What":466,"ĠM":467,"Ġwhe":468,"ĠE":469,"KING":470,"Ġam":471,"end":472,"ic":473,"Ġcon":474,"ble":475,"ry":476,"ong":477,"ie":478,"ive":479,"Ġbl":480,"Ġfrom":481,"ven":482,"ĠG":483,"For":484,"Ġshe":485,"em":486,"Ġgo":487,"are":488,"Ġmore":489,"IC":490,"out":491,"Ġthem":492,"au":493,"Ġwas":494,"oth":495,"other":496,"He":497,"Ġsir":498,"ol":499,"Ġnow":500,"ĠL":501,"Ġhat":502,"ost":503,"Ġif":504,"LO":505,"ind":506,"Ġthere":507,"Ġwould":508,"Ġknow":509,"Ġcan":510,"ers":511,"IUS":512,"ep":513,"self":514,"ARD":515,"ather":516,"fe":517,"ond":518,"res":519,"ate":520,"Ġsay":521,"Ġhere":522,"Ġlove":523,"Ġsw":524,"Ġtheir":525,"Ġbr":526,"pp":527,"Ġor":528,"--":529,"all":530,"ĠS":531,"Ġthan":532,"Ġthen":533,"Ġking":534,"Ġus":535,"ĠO":536,"ĠB":537,"Ġthey":538,"Ġar":539,"od":540,"My":541,"Ġlet":542,"Ġun":543,"ig":544,"Ġwor":545,"ure":546,"ink":547,"ĠH":548,"ort":549,"hy":550,"ĠV":551,"ame":552,"fore":553,"As":554,"Ġmay":555,"el":556,"Ġqu":557,"Ġcome":558,"ook":559,"Whe":560,"ish":561,"LI":562,"Ġwell":563,"KE":564,"ves":565,"Ġj":566,"Ġone":567,"Ġhath":568,"irst":569,"You":570,"Ġmake":571,"reat":572,"ak":573,"gain":574,"Ġmust":575,"ound":576,"ng":577,"Ġgra":578,"Ġwere":579,"Ġho":580,"ci":581,"Ġsee":582,"Ġlike":583,"ue":584,"eak":585,"TIO":586,"Ġshould":587,"ity":588,"Ġpro":589,"ĠP":590,"Ġsa":591,"Ġmad":592,"um":593,"Ġpl":594,"Ġfather":595,"RO":596,"AU":597,"Ġhad":598,"Ġdid":599,"pe":600,"ime":601,"Ġupon":602,"ice":603,"ON":604,"Ġtoo":605,"ence":606,"ĠW":607,"ward":608,"ist":609,"Ġdeath":610,"own":611,"man":612,"ose":613,"Ġen":614,"un":615,"IS":616,"ful":617,"nce":618,"Ġr":619,"Ġpo":620,"Ġspeak":621,"de":622,"entle":623,"io":624,"Ġout":625,"pt":626,"Ġwhich":627,"ICH":628,"Ġfri":629,"OL":630,"DU":631,"Ġagain":632,"DUKE":633,"Ġhow":634,"EL":635,"ick":636,"ĠA":637,"Ġtru":638,"Ġheart":639,"Ġyet":640,"Ġhand":641,"CA":642,"Thou":643,"very":644,"ICHARD":645,"ENTIO":646,"With":647,"ign":648,"Ġsome":649,"ance":650,"Ġwho":651,"Which":652,"If":653,"Ġwhen":654,"ies":655,"Ġmar":656,"ire":657,"Ġmine":658,"Ġhon":659,"har":660,"orn":661,"Ġoff":662,"ince":663,"INC":664,"In":665,"ack":666,"ĠY":667,"Ġson":668,"Ġdis":669,"Ġal":670,"'t":671,"We":672,"uch":673,"wn":674,"Ġhea":675,"First":676,"oy":677,"Ġtime":678,"Ġhear":679,"AB":680,"ec":681,"Ġsuch":682,"ness":683,"LA":684,"Ġbrother":685,"Of":686,"Ġblood":687,"ither":688,"Ġab":689,"UE":690,"Why":691,"Ġthese":692,"No":693,"Ġgive":694,"Ġfo":695,"Ġday":696,"ĠII":697,"Ġear":698,"ĠRICHARD":699,"TER":700,"Ġro":701,"ise":702,"Ġex":703,"Ġlife":704,"This":705,"eet":706,"Ġtell":707,"So":708,"Ġlook":709,"Ġthink":710,"UCH":711,"oul":712,"Ġword":713,"Ġey":714,"Ġwhere":715,"ag":716,"age":717,"een":718,"ther":719,"GLO":720,"Ġtake":721,"UCES":722,"Ġfriend":723,"GLOUCES":724,"GLOUCESTER":725,"ef":726,"erv":727,"ady":728,"rown":729,"Ġdes":730,"ings":731,"ave":732,"not":733,"Ġgentle":734,"urse":735,"How":736,"RY":737,"Ġri":738,"ase":739,"QUE":740,"way":741,"INCENTIO":742,"QUEEN":743,"Ġlea":744,"tis":745,"ĠOF":746,"Ġart":747,"Ġmost":748,"Where":749,"Ġhonour":750,"LAN":751,"Ġmuch":752,"Ġsl":753,"Ġwar":754,"Ġfl":755,"urn":756,"Ġmade":757,"ment":758,"Now":759,"Ġhast":760,"Ġtw":761,"Ġfear":762,"ĠT":763,"Ġbet":764,"ENRY":765,"aught":766,"Is":767,"LE":768,"ber":769,"ff":770,"ĠGod":771,"ough":772,"ved":773,"Ġbre":774,"cc":775,"ower":776,"Ġnever":777,"ĠVINCENTIO":778,"Be":779,"ap":780,"igh":781,"ĠK":782,"Ġgreat":783,"Ġfair":784,"Who":785,"ee":786,"tle":787,"Ġmen":788,"orrow":789,"Ġcou":790,"Ġnew":791,"ĠRome":792,"aster":793,"uke":794,"iz":795,"old":796,"ORK":797,"Ġpart":798,"ation":799,"INIUS":800,"ss":801,"ree":802,"ide":803,"Or":804,"Ġcall":805,"ple":806,"Ġany":807,"Ġheaven":808,"Ġad":809,"Ġcomm":810,"It":811,"Your":812,"Ġstand":813,"Ġcannot":814,"Ġtrue":815,"DW":816,"Ġname":817,"Ġbeen":818,"ears":819,"DWARD":820,"Ġcl":821,"Ġpre":822,"Ġsweet":823,",--":824,"Ġdoth":825,"Ġpray":826,"hing":827,"PET":828,"UM":829,"Ġnoble":830,"LUC":831,"MEN":832,"TH":833,"Ġown":834,"Ġple":835,"ass":836,"ĠD":837,"ouse":838,"Ġper":839,"Ay":840,"Come":841,"ull":842,"There":843,"Ġwr":844,"Ġdone":845,"ife":846,"aw":847,"Ġtr":848,"Ġway":849,"Ġother":850,"Ġhead":851,"Ġmean":852,"li":853,"red":854,"When":855,"dward":856,"Ġnor":857,"EO":858,"MEO":859,"Ġsc":860,"Ġsoul":861,"Ġpres":862,"ROMEO":863,"ace":864,"ving":865,"Ġnight":866,"Ġbear":867,"ENIUS":868,"aint":869,"ĠCl":870,"Ġworld":871,"MENENIUS":872,"ger":873,"Ġbefore":874,"ause":875,"Ġboth":876,"Ġqueen":877,"per":878,"Then":879,"aughter":880,"RUCH":881,"ock":882,"Ġchi":883,"Here":884,"PETRUCH":885,"PETRUCHIO":886,"OM":887,"able":888,"Ġvery":889,"Ġdead":890,"TES":891,"By":892,"Ġra":893,"ite":894,"Than":895,"the":896,"Ġke":897,"ab":898,"les":899,"ĠF":900,"Ġdown":901,"to":902,"Ġapp":903,"Ġmyself":904,"Ġcont":905,"GR":906,"HA":907,"Ġwh":908,"Ġrem":909,"ĠLord":910,"Ġarm":911,"Ġthus":912,"IOLAN":913,"ilt":914,"ORIOLAN":915,"ORIOLANUS":916,"CORIOLANUS":917,"Sec":918,"Ġleave":919,"Second":920,"Ġbeing":921,"ction":922,"ĠEdward":923,"Nor":924,"sw":925,"Ġunt":926,"ress":927,"Ġgrace":928,"less":929,"Ġbeg":930,"Ġeyes":931,"BA":932,"land":933,"Ġmother":934,"ran":935,"Ġma":936,"Ġold":937,"Ġim":938,"INA":939,"ĠEDWARD":940,"itiz":941,"itizen":942,"ps":943,"Ġlong":944,"Ġever":945,"ĠMar":946,"Ġlive":947,"Ġchild":948,"Let":949,"me":950,"Ġwife":951,"She":952,"Ġaway":953,"Ġrep":954,"ĠIII":955,"Ġwom":956,"Ġpoor":957,"Ġfriends":958,"come":959,"for":960,"wick":961,"Ġaf":962,"Ġmight":963,"nder":964,"Ġstay":965,"eace":966,"ks":967,"oud":968,"Ġdie":969,"atch":970,"led":971,"ĠJ":972,"Ġru":973,"arwick":974,"Ġcomes":975,"Ġcons":976,"Ġcrown":977,"ows":978,"Ġmany":979,"Ġpe":980,"Tis":981,"hall":982,"ison":983,"Ġle":984,"ĠYORK":985,"lo":986,"uck":987,"iss":988,"Ġhouse":989,"Ġhar":990,"Ġthought":991,"Ġrest":992,"ISAB":993,"ELLA":994,"ISABELLA":995,"ian":996,"erc":997,"Ġcour":998,"RAN":999,"Ġent":1000,"Ġlie":1001,"che":1002,"Ġset":1003,"JU":1004,"well":1005,"ors":1006,"atter":1007,"LIET":1008,"ONTES":1009,"ĠWarwick":1010,"LEONTES":1011,"JULIET":1012,"Nay":1013,"int":1014,"ittle":1015,"Ġdaughter":1016,"Ġgone":1017,"Ġbetter":1018,"MI":1019,"rant":1020,"ought":1021,"Ġprince":1022,"DY":1023,"His":1024,"Ġtong":1025,"Ġwit":1026,"Ġnothing":1027,"CE":1028,"VOL":1029,"ENCE":1030,"LADY":1031,"BR":1032,"TA":1033,"cl":1034,"ied":1035,"Ġkeep":1036,"Go":1037,"Well":1038,"ces":1039,"ious":1040,"os":1041,"Ġsle":1042,"Ġres":1043,"hard":1044,"Ġnews":1045,"SIC":1046,"ft":1047,"ier":1048,"Ġtri":1049,"Ġmo":1050,"ret":1051,"ont":1052,"Ġthose":1053,"Ġgri":1054,"ool":1055,"une":1056,"SICINIUS":1057,"Not":1058,"Ġlittle":1059,"Ġlords":1060,"Ġagainst":1061,"ford":1062,"Ġbest":1063,"Ġhour":1064,"Ġhence":1065,"ardon":1066,"akes":1067,"lse":1068,"Ġacc":1069,"sed":1070,"Ġface":1071,"ult":1072,"Ġfoll":1073,"On":1074,"ew":1075,"ud":1076,"ark":1077,"Ġyoung":1078,"Ġend":1079,"ork":1080,"Ġthing":1081,"Ġstill":1082,"Ġkind":1083,"ield":1084,"ST":1085,"Ġpri":1086,"Ġpur":1087,"alk":1088,"Thy":1089,"Ġcomp":1090,"LUCIO":1091,"ale":1092,"ins":1093,"ert":1094,"Ġput":1095,"Ġpower":1096,"ĠIV":1097,"ichard":1098,"Ġtwo":1099,"Ġcha":1100,"Ġhimself":1101,"Pro":1102,"iness":1103,"Ġfirst":1104,"Ġpeace":1105,"Ġgu":1106,"Ġelse":1107,"ried":1108,"Ġdear":1109,"cious":1110,"Sir":1111,"ail":1112,"ty":1113,"ason":1114,"hile":1115,"Ġsub":1116,"Ġunto":1117,"ile":1118,"ray":1119,"Ġtill":1120,"Ġsm":1121,"uty":1122,"RI":1123,"ZAB":1124,"ect":1125,"Ġtra":1126,"Ġbid":1127,"Ġback":1128,"Ġdre":1129,"Ġhus":1130,"ETH":1131,"ĠELI":1132,"Ġtherefore":1133,"Ġearth":1134,"Ġwords":1135,"Ġcount":1136,"ZABETH":1137,"ĠELIZABETH":1138,"Have":1139,"band":1140,"ius":1141,"men":1142,"ople":1143,"yal":1144,"Ġfind":1145,"Ġcould":1146,"Ġtongue":1147,"orse":1148,"Ġlady":1149,"Ġthine":1150,"Ġneed":1151,"ĠYork":1152,"HENRY":1153,"get":1154,"tw":1155,"Ġtre":1156,"Ġfell":1157,"enry":1158,"Ġhigh":1159,"Ġforth":1160,"Ġhope":1161,"MER":1162,"St":1163,"lp":1164,"Ġhome":1165,"vere":1166,"eth":1167,"Ġseem":1168,"eech":1169,"ĠRomeo":1170,"Ġhusband":1171,"CL":1172,"Ġduke":1173,"Ġright":1174,"GE":1175,"WAR":1176,"WIC":1177,"fort":1178,"ĠWhat":1179,"rer":1180,"Ġban":1181,"uth":1182,"Ġthough":1183,"ĠVI":1184,"WARWIC":1185,"WARWICK":1186,"UT":1187,"ach":1188,"ix":1189,"Ġmind":1190,"Ġbra":1191,"ister":1192,"Ġche":1193,"Ġchar":1194,"hip":1195,"ĠHENRY":1196,"Ġpeople":1197,"Nurse":1198,"ds":1199,"ged":1200,"ĠCitizen":1201,"ren":1202,"They":1203,"ĠHenry":1204,"HAM":1205,"IAN":1206,"LET":1207,"PU":1208,"eed":1209,"Ġbri":1210,"Ġchan":1211,"Ġlaw":1212,"ĠRichard":1213,"Ġshow":1214,"Ġconf":1215,"Ġhands":1216,"PULET":1217,"EY":1218,"be":1219,"Ġmaster":1220,"Ġwhy":1221,"Ġco":1222,"Ġcause":1223,"Ġgl":1224,"Ġonce":1225,"Ġsaid":1226,"Ġimp":1227,"Good":1228,"MIO":1229,"Shall":1230,"Ġbod":1231,"Ġnone":1232,"ousin":1233,"Ġjoy":1234,"ervant":1235,"All":1236,"bt":1237,"Ġfort":1238,"Ġbring":1239,"Yet":1240,"Ġdou":1241,"ates":1242,"Ġevery":1243,"UCKING":1244,"BRUT":1245,"UCKINGHAM":1246,"BRUTUS":1247,"BRO":1248,"BUCKINGHAM":1249,"From":1250,"TRAN":1251,"iet":1252,"Ġmist":1253,"Ġpass":1254,"ird":1255,"Ġlight":1256,"INGBRO":1257,"ESS":1258,"ĠBOL":1259,"TRANIO":1260,"INGBROKE":1261,"ĠBOLINGBROKE":1262,"Do":1263,"Will":1264,"lt":1265,"vost":1266,"Ġwo":1267,"Ġnat":1268,"Ġthr":1269,"Ġroyal":1270,"swer":1271,"PER":1272,"TIS":1273,"cle":1274,"Ġtears":1275,"its":1276,"Ġcame":1277,"ary":1278,"ĠMAR":1279,"Ġwhose":1280,"Ġplease":1281,"lf":1282,"vy":1283,"ory":1284,"Ġpardon":1285,"roke":1286,"ĠAn":1287,"Cl":1288,"GAR":1289,"NE":1290,"pose":1291,"Ġbes":1292,"Ġboy":1293,"Ġfull":1294,"arry":1295,"Ġheard":1296,"Ġhapp":1297,"Ġdev":1298,"Ġjust":1299,"Ġwrong":1300,"Ġpresent":1301,"ĠMARGAR":1302,"ĠMARGARET":1303,"ATH":1304,"eel":1305,"Ġsince":1306,"Ġmis":1307,"ens":1308,"Ġland":1309,"Ġlast":1310,"Ġere":1311,"Ġstate":1312,"Ġplace":1313,"MIL":1314,"bl":1315,"sand":1316,"Ġmeet":1317,"Ġunder":1318,"Ġkill":1319,"Ġafter":1320,"HOR":1321,"cent":1322,"Ġsorrow":1323,"ition":1324,"Ġcare":1325,"Ġthousand":1326,"esty":1327,"ANGE":1328,"ORD":1329,"Ġhold":1330,"GRE":1331,"ANGELO":1332,"CU":1333,"Our":1334,"Ġhelp":1335,"ARINA":1336,"arence":1337,"Ġwhom":1338,"Ġfollow":1339,"KATH":1340,"day":1341,"Ġfar":1342,"Ġless":1343,"Ġhither":1344,"ceive":1345,"irt":1346,"Ġweep":1347,"Ġshame":1348,"selves":1349,"cius":1350,"Ġenem":1351,"Ġabout":1352,"Ġeye":1353,"KATHARINA":1354,"iol":1355,"Ġfal":1356,"Ġfool":1357,"ons":1358,"Ġpat":1359,"urde":1360,"Ġsun":1361,"Ġanswer":1362,"air":1363,"Ġch":1364,"asure":1365,"Ġfall":1366,"Ġmaid":1367,"LUS":1368,"Un":1369,"Up":1370,"ount":1371,"Ġbus":1372,"Ġcousin":1373,"thy":1374,"ESCA":1375,"Ġhate":1376,"Ġgracious":1377,"Ġgentleman":1378,"ĠKing":1379,"Ġgrief":1380,"ESCALUS":1381,"An":1382,"ject":1383,"ove":1384,"Ġmakes":1385,"Ġinto":1386,"imes":1387,"Ġstri":1388,"Hath":1389,"iv":1390,"ild":1391,"Ġstre":1392,"ĠEng":1393,"Ġwoman":1394,"DUCH":1395,"Ġturn":1396,"Ġhum":1397,"Ġbel":1398,"alt":1399,"Ġdost":1400,"Ġcomfort":1401,"ices":1402,"Ġcoun":1403,"ĠDuke":1404,"Ġcourt":1405,"Ġsleep":1406,"urderer":1407,"DUCHESS":1408,"Lord":1409,"pher":1410,"Ġtalk":1411,"itor":1412,"Ġover":1413,"Ġbody":1414,"morrow":1415,"Ġwilt":1416,"Ġbu":1417,"Ġgr":1418,"ute":1419,"gelo":1420,"deed":1421,"ĠMarcius":1422,"IA":1423,"ience":1424,"Ġi":1425,"ised":1426,"Ġbed":1427,"Ġfault":1428,"Ġatt":1429,"ieve":1430,"Ġprove":1431,"Ġplay":1432,"CAMIL":1433,"ĠClarence":1434,"CAMILLO":1435,"God":1436,"ere":1437,"ily":1438,"Ġsound":1439,"Ġdra":1440,"ans":1441,"omet":1442,"Ġinst":1443,"Ġwel":1444,"ade":1445,"Ġret":1446,"Ġdeed":1447,"Ġthank":1448,"TEN":1449,"Ġser":1450,"Ġbo":1451,"Ġfight":1452,"Ġindeed":1453,"illain":1454,"hold":1455,"Ġvo":1456,"Ġsword":1457,"ĠAngelo":1458,"HORTEN":1459,"Ġfalse":1460,"HORTENS":1461,"FRI":1462,"Sh":1463,"Ġuse":1464,"Ġeven":1465,"Ġsovere":1466,"Ġanother":1467,"Ġgrave":1468,"Ġadv":1469,"Provost":1470,"Ġfellow":1471,"Upon":1472,"HORTENSIO":1473,"FRIAR":1474,",'":1475,"PTIS":1476,"eal":1477,"Ġcur":1478,"Ġhas":1479,"Ġem":1480,"ury":1481,"pect":1482,"BAPTIS":1483,"Ġbanish":1484,"Ġfortune":1485,"BAPTISTA":1486,"CUS":1487,"COM":1488,"TOL":1489,"YCUS":1490,"pl":1491,"pen":1492,"ouch":1493,"Ġmerc":1494,"Ġmatter":1495,"Ġwant":1496,"Ġreven":1497,"Ġass":1498,"Ġsend":1499,"Ġprison":1500,"fect":1501,"AUTOL":1502,"Ġrather":1503,"Ġcountry":1504,"Ġdoubt":1505,"COMINIUS":1506,"AUTOLYCUS":1507,".'":1508,"Are":1509,"Even":1510,"More":1511,"Ġwish":1512,"Ġyears":1513,"Ġreason":1514,"Ġlies":1515,"Ġonly":1516,"ARENCE":1517,"Third":1518,"Ġvirt":1519,"Ġtruth":1520,"Would":1521,"ior":1522,"ms":1523,"of":1524,"rance":1525,"ĠBut":1526,"Ġdan":1527,"Ġpers":1528,"any":1529,"Ġbreath":1530,"Ġarms":1531,"Ġdream":1532,"CLARENCE":1533,"pherd":1534,"BEN":1535,"MAR":1536,"NOR":1537,"dd":1538,"der":1539,"Ġsent":1540,"ener":1541,"Ġgi":1542,"Ġstra":1543,"Ġshalt":1544,"Ġdisc":1545,"VOLIO":1546,"Clown":1547,"Ġbusiness":1548,"BENVOLIO":1549,"Al":1550,"At":1551,"PRO":1552,"SPER":1553,"by":1554,"hed":1555,"Ġsen":1556,"Ġprom":1557,"Ġholy":1558,"Ġenough":1559,"erving":1560,"Ġcommand":1561,"UMIO":1562,"GRUMIO":1563,"PROSPER":1564,"PROSPERO":1565,"ia":1566,"ken":1567,"Ġsea":1568,"Ġwind":1569,"itt":1570,"Ġcra":1571,"Ġlay":1572,"ars":1573,"Ġpity":1574,"ator":1575,"Ġbea":1576,"Ġhang":1577,"Ġstran":1578,"Ġsold":1579,"Ġspir":1580,"Ġfare":1581,"Ġproud":1582,"ĠMurderer":1583,"Ġswear":1584,"Ġcontent":1585,"MERCU":1586,"MERCUTIO":1587,"ike":1588,"Ġdare":1589,"eter":1590,"Ġlives":1591,"Ġdep":1592,"Ġsec":1593,"Ġvillain":1594,"gainst":1595,"ĠKate":1596,"LUCENTIO":1597,"Ġremem":1598,"Ġnature":1599,"Ġwelcome":1600,"POM":1601,"Tw":1602,"com":1603,"unt":1604,"Ġtend":1605,"ham":1606,"Ġfree":1607,"Ġgre":1608,"Ġget":1609,"Ġint":1610,"Ġwithin":1611,"Ġkiss":1612,"ester":1613,"ĠCome":1614,"Ġgods":1615,"Ġsaw":1616,"Ġmadam":1617,"LAND":1618,"Ġhappy":1619,"Ġsovereign":1620,"POMP":1621,"LINA":1622,"PAU":1623,"apt":1624,"Ġserv":1625,"Ġsister":1626,"Ġsomet":1627,"hal":1628,"Ġfoul":1629,"Ġcity":1630,"vers":1631,"Were":1632,"Ġbeseech":1633,"PAULINA":1634,"YORK":1635,"ient":1636,"use":1637,"ery":1638,"Ġden":1639,"Ġyield":1640,"Ġthree":1641,"Ġoath":1642,"Ġyours":1643,"onder":1644,"ague":1645,"Ġbreak":1646,"Ġmeans":1647,"Ġsubject":1648,"gether":1649,"GREMIO":1650,"POMPEY":1651,"NIA":1652,"OLI":1653,"POLI":1654,"XEN":1655,"balt":1656,"ybalt":1657,"ĠNor":1658,"Ġaw":1659,"Ġmer":1660,"Ġwhile":1661,"Ġborn":1662,"Ġthings":1663,"Ġhorse":1664,"anc":1665,"usic":1666,"ANT":1667,"Ġbloody":1668,"Ġlooks":1669,"eft":1670,"UMNIA":1671,"like":1672,"ches":1673,"VOLUMNIA":1674,"POLIXEN":1675,"POLIXENES":1676,"GON":1677,"Her":1678,"rong":1679,"up":1680,"ues":1681,"Ġtem":1682,"Ġwin":1683,"Ġwound":1684,"Ġfire":1685,"enger":1686,"Ġyourself":1687,"Ġsupp":1688,"Ġspo":1689,"Ġfaith":1690,"INGS":1691,"ĠServing":1692,"Ġmaj":1693,"STINGS":1694,"Ġtraitor":1695,"centio":1696,"ĠServingman":1697,"RENCE":1698,"Say":1699,"bs":1700,"broke":1701,"rem":1702,"Ġdru":1703,"Ġlam":1704,"essenger":1705,"ĠLAU":1706,"Ġmark":1707,"Ġcommon":1708,"HASTINGS":1709,"Ġchildren":1710,"ertain":1711,"Ġmistress":1712,"ĠLAURENCE":1713,"BY":1714,"BER":1715,"Ġcond":1716,"Ġbeat":1717,"Ġrequ":1718,"Ġdef":1719,"Ġval":1720,"Ġuncle":1721,"Therefore":1722,"form":1723,"Ġmajesty":1724,"CLI":1725,"FF":1726,"Look":1727,"Was":1728,"Ġaff":1729,"Ġsin":1730,"Ġmet":1731,"Ġlate":1732,"Ġleft":1733,"Ġtold":1734,"Ġsoon":1735,"Ġseen":1736,"Ġsave":1737,"Ġdays":1738,"UMBER":1739,"THUMBER":1740,"Ġwoe":1741,"ĠEngland":1742,"NORTHUMBER":1743,"Ġtender":1744,"CLIFF":1745,"NORTHUMBERLAND":1746,"ID":1747,"Take":1748,"bed":1749,"ever":1750,"ring":1751,"ten":1752,"Ġsight":1753,"Ġmon":1754,"Ġgener":1755,"ides":1756,"idow":1757,"Ġdoes":1758,"Though":1759,"Ġreturn":1760,"Ġmercy":1761,"Ġfarewell":1762,"ac":1763,"dom":1764,"mp":1765,"ĠAN":1766,"hes":1767,"Ġsit":1768,"Ġsad":1769,"rel":1770,"Ġdeep":1771,"ters":1772,"Ġgold":1773,"unes":1774,"Ġmarry":1775,"Ġheavy":1776,"Ġfoot":1777,"Ġwarrant":1778,"ĠJul":1779,"Ġpurpose":1780,"Ġthrough":1781,"Ġdanger":1782,"ĠANNE":1783,"Ah":1784,"Did":1785,"Give":1786,"PR":1787,"aim":1788,"ict":1789,"mer":1790,"so":1791,"und":1792,"vent":1793,"Ġill":1794,"Ġcho":1795,"Ġcold":1796,"Ġnurse":1797,"Ġtogether":1798,"Ġgrow":1799,"ours":1800,"ifford":1801,"Ġsure":1802,"earn":1803,"CAPULET":1804,"ignior":1805,"INCE":1806,"Ġdeser":1807,"ments":1808,"PRINCE":1809,"az":1810,"aid":1811,"ca":1812,"oint":1813,"Ġtimes":1814,"oriol":1815,"ingbroke":1816,"ceed":1817,"Ġwithout":1818,"enty":1819,"Ġask":1820,"ross":1821,"ush":1822,"Ġlost":1823,"arewell":1824,"olingbroke":1825,"Ġpluck":1826,"Ġreport":1827,"Ġliege":1828,"Ġbelieve":1829,"Ġspirit":1830,"ling":1831,"sh":1832,"xt":1833,"Ġair":1834,"Ġage":1835,"outh":1836,"Ġwat":1837,"Ġheir":1838,"ets":1839,"ains":1840,"Ġthyself":1841,"ift":1842,"Ġloss":1843,"ĠMont":1844,"Ġsays":1845,"ĠBolingbroke":1846,"Whose":1847,"One":1848,"Ġstrange":1849,"ALO":1850,"Had":1851,"ial":1852,"no":1853,"ner":1854,"Ġbat":1855,"Ġcry":1856,"Ġlearn":1857,"ced":1858,"Ġsuff":1859,"aking":1860,"Ġears":1861,"Ġhaste":1862,"ĠClifford":1863,"Ġentreat":1864,"Ġdevil":1865,"Ġground":1866,"Should":1867,"Ġperson":1868,"ĠJuliet":1869,"Like":1870,"Wh":1871,"ges":1872,"night":1873,"Ġmur":1874,"ined":1875,"Ġfly":1876,"Ġtoward":1877,"Ġpast":1878,"oman":1879,"let":1880,"Ġfast":1881,"Ġvis":1882,"aud":1883,"ĠLu":1884,"Ġpoint":1885,"Ġfriar":1886,"Ġdisp":1887,"Ġslain":1888,"Ġbetw":1889,"ĠFrance":1890,"ixt":1891,"Ġjustice":1892,"Ġstraight":1893,"Ġremember":1894,"APULET":1895,"FL":1896,"FID":1897,"IZ":1898,"May":1899,"Some":1900,"Ġord":1901,"Ġsil":1902,"ina":1903,"Ġbold":1904,"Ġcurse":1905,"Ġnear":1906,"ution":1907,"Ġstrong":1908,"These":1909,"ĠCAPULET":1910,"ORIZ":1911,"Ġworthy":1912,"Ġquick":1913,"AUFID":1914,"entleman":1915,"Ġtrust":1916,"Ġalone":1917,"Ġdesire":1918,"Ġinstru":1919,"Ġbeauty":1920,"Ġservice":1921,"FLORIZ":1922,"AUFIDIUS":1923,"FLORIZEL":1924,"Can":1925,"SE":1926,"Tell":1927,"VER":1928,"gs":1929,"ning":1930,"ship":1931,"with":1932,"Ġtouch":1933,"Ġfound":1934,"ithe":1935,"ĠIs":1936,"adam":1937,"Ġready":1938,"ION":1939,"Ġbrought":1940,"ured":1941,"Ġposs":1942,"ĠTybalt":1943,"Ġrun":1944,"Ġhard":1945,"Ġenemy":1946,"Ġrevenge":1947,"Ġgeneral":1948,"audio":1949,"!'":1950,"Ha":1951,"ible":1952,"vo":1953,"ĠHere":1954,"Ġwoo":1955,"Ġduty":1956,"enator":1957,"Ġgrant":1958,"Ġinf":1959,"cept":1960,"Ġitself":1961,"amill":1962,"Ġlose":1963,"aunt":1964,"Ġknows":1965,"Ġcanst":1966,"ĠSenator":1967,"inks":1968,"umber":1969,"Ġmarried":1970,"Ġthoughts":1971,"Ġcharge":1972,"Against":1973,"Bec":1974,"CIUS":1975,"RICHARD":1976,"Sp":1977,"cester":1978,"eep":1979,"gu":1980,"lou":1981,"sue":1982,"ua":1983,"ĠYou":1984,"Ġmorn":1985,"Ġwear":1986,"riage":1987,"Ġread":1988,"Ġdeli":1989,"Ġspeed":1990,"Ġquar":1991,"Ġprof":1992,"Ġtwenty":1993,"Ġstands":1994,"BAST":1995,"Shepherd":1996,"ched":1997,"Ġhours":1998,"Ġconfess":1999,"Ġstreng":2000,"SEBAST":2001,"ithee":2002,"SEBASTIAN":2003,"OW":2004,"cess":2005,"ĠN":2006,"Ġmock":2007,"Ġfur":2008,"Ġfore":2009,"Ġfield":2010,"ones":2011,"Ġdiv":2012,"Ġcar":2013,"Ġyouth":2014,"Ġpost":2015,"Ġhell":2016,"ingham":2017,"Ġhalf":2018,"oop":2019,"Thus":2020,"ĠRi":2021,"olk":2022,"fection":2023,"ĠHast":2024,"Ġjud":2025,"ump":2026,"Ġexec":2027,"Ġfearful":2028,"Ġcounsel":2029,"amillo":2030,"BION":2031,"Com":2032,"DEL":2033,"Till":2034,"most":2035,"pare":2036,"Ġter":2037,"Ġmin":2038,"Ġwret":2039,"Ġbos":2040,"Ġpar":2041,"Ġbehold":2042,"Ġinc":2043,"Ġeach":2044,"ads":2045,"Ġrec":2046,"Ġdel":2047,"ĠCoriol":2048,"ols":2049,"Ġwork":2050,"ortal":2051,"Ġhearts":2052,"Ġmarriage":2053,"Ġdesp":2054,"ĠClaudio":2055,"itizens":2056,"uckingham":2057,"Ġresol":2058,"MARCIUS":2059,"ĠMontague":2060,"loucester":2061,"BIONDEL":2062,"Ġbosom":2063,"BIONDELLO":2064,"Away":2065,"MON":2066,"Madam":2067,"bly":2068,"folk":2069,"iers":2070,"now":2071,"ĠThe":2072,"Ġtit":2073,"Ġten":2074,"Ġtale":2075,"Ġbound":2076,"Ġdam":2077,"Ġcut":2078,"ench":2079,"Ġye":2080,"Ġopen":2081,"rah":2082,"alm":2083,"ĠCap":2084,"Ġshort":2085,"Ġknown":2086,"ĠBuckingham":2087,"Ġseek":2088,"Ġharm":2089,"Ġcompany":2090,"Ġguilt":2091,"Ġhighness":2092,"Ġstrike":2093,"Ġattend":2094,"Ġserve":2095,"Ġmurder":2096,"ĠHastings":2097,"Farewell":2098,"HER":2099,"OP":2100,"chan":2101,"hood":2102,"Ġve":2103,"ĠHe":2104,"ĠAU":2105,"Ġag":2106,"Ġsat":2107,"Ġside":2108,"Ġwhi":2109,"Ġwatch":2110,"rest":2111,"ished":2112,"Ġfeel":2113,"Ġdish":2114,"Ġdist":2115,"ents":2116,"ander":2117,"Ġsuit":2118,"Ġloving":2119,"ONIO":2120,"Ġhonest":2121,"Ġheavens":2122,"Ġtrib":2123,"MERLE":2124,"Ġdraw":2125,"Ġvoices":2126,"Ġsomething":2127,"ANTONIO":2128,"Ġstrength":2129,"ĠAUMERLE":2130,"Marry":2131,"Pray":2132,"See":2133,"ZALO":2134,"fid":2135,"ging":2136,"Ġact":2137,"Ġsake":2138,"Ġwast":2139,"Ġwonder":2140,"Ġwidow":2141,"Ġbit":2142,"Ġcor":2143,"Ġsto":2144,"Ġstir":2145,"ĠGentleman":2146,"ĠGloucester":2147,"ĠLanc":2148,"Ġdidst":2149,"Ġgentlemen":2150,"Ġcloud":2151,"Ġwomen":2152,"ethinks":2153,"Ġenemies":2154,"GONZALO":2155,"ĠLancaster":2156,"Unt":2157,"ives":2158,"su":2159,"Ġsing":2160,"Ġmusic":2161,"rew":2162,"Ġbreat":2163,"Ġdr":2164,"Ġpra":2165,"Ġpie":2166,"Ġpale":2167,"Ġgates":2168,"oose":2169,"race":2170,"ils":2171,"ĠCamillo":2172,"Ġnext":2173,"Ġknew":2174,"Ġcoming":2175,"Ġthanks":2176,"Ġclose":2177,"Ġpleasure":2178,"Ġsouls":2179,"ianca":2180,"Ġcourse":2181,"Ġenter":2182,"Ġwithal":2183,"Ġbrave":2184,"Ġchee":2185,"ceived":2186,"Ġtitle":2187,"DIO":2188,"fter":2189,"ne":2190,"vour":2191,"you":2192,"Ġty":2193,"Ġwa":2194,"Ġbur":2195,"Ġfit":2196,"oward":2197,"Ġgar":2198,"Ġbecome":2199,"etch":2200,"etru":2201,"Ġforg":2202,"Ġweak":2203,"Ġeither":2204,"Ġlips":2205,"rust":2206,"els":2207,"Ġjest":2208,"Ġplain":2209,"AUDIO":2210,"Ġabs":2211,"Ġpret":2212,"claim":2213,"Ġgrie":2214,"CLAUDIO":2215,"Ġchange":2216,"MIONE":2217,"ĠNorfolk":2218,"CLIFFORD":2219,"Ġsuffer":2220,"Ġdeliver":2221,"HERMIONE":2222,"DA":2223,"EDWARD":2224,"LORD":2225,"Most":2226,"cher":2227,"kes":2228,"ses":2229,"ufid":2230,"ĠTh":2231,"Ġsk":2232,"Ġsame":2233,"Ġsick":2234,"Ġsign":2235,"Ġwis":2236,"Ġwall":2237,"ready":2238,"isf":2239,"Ġcast":2240,"irth":2241,"chio":2242,"Ġforb":2243,"Ġforget":2244,"oof":2245,"ries":2246,"Ġreg":2247,"urp":2248,"east":2249,"Ġven":2250,"Ġthemselves":2251,"ĠBianca":2252,"Ġworse":2253,"ĠPom":2254,"Ġtook":2255,"Ġpoison":2256,"Ġalong":2257,"Ġrich":2258,"Ġbreast":2259,"ranio":2260,"Ġconsul":2261,"RANDA":2262,"MIRANDA":2263,"twas":2264,"twere":2265,"Ġcheer":2266,"Ġpatience":2267,"Ġmerry":2268,"Ġorder":2269,"etruchio":2270,"ufidius":2271,"HN":2272,"Messenger":2273,"OHN":2274,"SA":2275,"SON":2276,"Servant":2277,"lst":2278,"oin":2279,"ting":2280,"Ġmouth":2281,"Ġwed":2282,"Ġbad":2283,"Ġbook":2284,"Ġfour":2285,"Ġdu":2286,"ĠIf":2287,"Ġgave":2288,"chm":2289,"Ġissue":2290,"ash":2291,"Ġliber":2292,"vern":2293,"Ġself":2294,"ions":2295,"rows":2296,"ally":2297,"Ġoffice":2298,"Ġalready":2299,"Being":2300,"Ġmove":2301,"Ġvirtue":2302,"Ġgiven":2303,"Ġbattle":2304,"ĠHereford":2305,"Ġmorning":2306,"Ġfurther":2307,"Make":2308,"Since":2309,"mber":2310,"nk":2311,"pes":2312,"rist":2313,"she":2314,"uous":2315,"used":2316,"Ġta":2317,"Ġac":2318,"oun":2319,"Ġwise":2320,"Ġburn":2321,"orge":2322,"Ġfrown":2323,"Ġfeast":2324,"Ġdire":2325,"esh":2326,"Ġlad":2327,"Ġpay":2328,"anus":2329,"Ġgro":2330,"ats":2331,"Ġred":2332,"Ġsoft":2333,"each":2334,"Ġsucc":2335,"icer":2336,"Ġblack":2337,"Ġgoes":2338,"Ġsworn":2339,"ĠSignior":2340,"elcome":2341,"Ġprop":2342,"Ġsons":2343,"Ġfoe":2344,"Ġext":2345,"ĠTower":2346,"Before":2347,"Ġtrou":2348,"Ġbegg":2349,"Ġbegin":2350,"Ġconsent":2351,"dden":2352,"Ġsoldiers":2353,"Ġrequest":2354,"ĠLucentio":2355,"Ġbetween":2356,"Ġquarrel":2357,"Ġsatisf":2358,"chmond":2359,"AS":2360,"Call":2361,"IR":2362,"Must":2363,"NT":2364,"Re":2365,"Sw":2366,"Such":2367,"gare":2368,"ires":2369,"ures":2370,"ung":2371,"uff":2372,"ĠFor":2373,"hem":2374,"Ġservant":2375,"Ġbar":2376,"Ġdro":2377,"Ġdark":2378,"Ġcr":2379,"Ġcase":2380,"Ġthri":2381,"aris":2382,"ots":2383,"stand":2384,"owers":2385,"irm":2386,"Ġloves":2387,"ĠCh":2388,"ends":2389,"Ġbless":2390,"empt":2391,"Ġthence":2392,"Ġworth":2393,"ĠAufidius":2394,"CATES":2395,"Ġexp":2396,"awd":2397,"Ġpresence":2398,"Ġpriv":2399,"Unless":2400,"Alas":2401,"Ġwounds":2402,"Ġdangerous":2403,"Because":2404,"garet":2405,"CATESBY":2406,"LY":2407,"oll":2408,"that":2409,"Ġsigh":2410,"Ġble":2411,"ona":2412,"onour":2413,"Ġhot":2414,"Ġgot":2415,"Ġinter":2416,"Ġund":2417,"Ġev":2418,"Ġsum":2419,"Ġneither":2420,"Ġvict":2421,"emn":2422,"ĠLond":2423,"ĠSir":2424,"ĠVols":2425,"cient":2426,"Ġwars":2427,"Ġflatter":2428,"Ġmighty":2429,"Ġrespect":2430,"Ġdread":2431,"Ġbride":2432,"Ġbrief":2433,"Ġthrone":2434,"Ġvoice":2435,"Ġemb":2436,"aptist":2437,"Ġdeny":2438,"Ġspoke":2439,"Ġwater":2440,"Ġvisit":2441,"ĠLondon":2442,"Both":2443,"BIAN":2444,"JOHN":2445,"Lest":2446,"Rome":2447,"REY":2448,"Yes":2449,"eorge":2450,"ip":2451,"iant":2452,"mand":2453,"ught":2454,"Ġest":2455,"Ġmal":2456,"Ġmortal":2457,"Ġbow":2458,"Ġbab":2459,"Ġfra":2460,"ern":2461,"Ġhur":2462,"Ġtown":2463,"Ġoften":2464,"Ġhaving":2465,"right":2466,"ided":2467,"Ġsudden":2468,"rum":2469,"Ġancient":2470,"Ġspeech":2471,"Ġvow":2472,"ĠGeorge":2473,"Ġloved":2474,"Ġkings":2475,"ĠBaptist":2476,"Ġworship":2477,"LIA":2478,"ĠParis":2479,"Ġsafe":2480,"ired":2481,"ainted":2482,"BAL":2483,"ĠMargaret":2484,"Ġprincely":2485,"BRA":2486,"Ġchamber":2487,"Ġseems":2488,"bey":2489,"Ġbuy":2490,"Ġdeeds":2491,"Whom":2492,"VERS":2493,"ĠRichmond":2494,"Ġbitter":2495,"BIANCA":2496,"BOW":2497,"Welcome":2498,"king":2499,"ls":2500,"lish":2501,"mb":2502,"rt":2503,"sp":2504,"ura":2505,"ĠThou":2506,"ĠThis":2507,"Ġfres":2508,"Ġfetch":2509,"Ġcol":2510,"Ġcross":2511,"Ġcoward":2512,"essed":2513,"Ġlim":2514,"Ġpen":2515,"otion":2516,"ated":2517,"urch":2518,"Ġknock":2519,"antage":2520,"oney":2521,"Ġprot":2522,"ĠGAU":2523,"ĠLady":2524,"ĠSaint":2525,"ĠServant":2526,"Ġkingdom":2527,"ĠPl":2528,"Ġsac":2529,"ELBOW":2530,"Ġheads":2531,"Ġscorn":2532,"Ġrage":2533,"Ġappear":2534,"Ġlead":2535,"Ġwitness":2536,"RIVERS":2537,"Ġpatient":2538,"Ġpromise":2539,"Ġlament":2540,"Ġvaliant":2541,"ĠIsab":2542,"Speak":2543,"Ġsuccess":2544,"ĠBaptista":2545,"ĠGAUNT":2546,"Bes":2547,"Ere":2548,"GUE":2549,"Hold":2550,"TY":2551,"cy":2552,"coun":2553,"nown":2554,"sper":2555,"will":2556,"xford":2557,"ĠKING":2558,"Ġign":2559,"Ġaction":2560,"Ġbro":2561,"Ġbawd":2562,"ities":2563,"Ġcle":2564,"Ġcreat":2565,"Ġcap":2566,"Ġlack":2567,"Ġthrow":2568,"Ġow":2569,"Ġopp":2570,"Ġgall":2571,"Ġforward":2572,"Ġeat":2573,"Ġkins":2574,"Their":2575,"iff":2576,"Ġang":2577,"Ġviol":2578,"antag":2579,"Ġprin":2580,"Ġprithee":2581,"ĠMy":2582,"Ġwash":2583,"ortens":2584,"aken":2585,"ĠPetruchio":2586,"Ġoffer":2587,"Ġleast":2588,"Ġslave":2589,"Ġflesh":2590,"ĠTranio":2591,"Ġprepare":2592,"Ġprayers":2593,"then":2594,"Ġappro":2595,"TAGUE":2596,"Ġtriump":2597,"Ġmoon":2598,"Ġcompl":2599,"itted":2600,"Ġtribunes":2601,"Ġdrink":2602,"ĠChrist":2603,"Romeo":2604,"ortensio":2605,"Yea":2606,"bit":2607,"but":2608,"ees":2609,"joy":2610,"ler":2611,"oor":2612,"ohem":2613,"vest":2614,"Ġid":2615,"Ġsur":2616,"Ġmid":2617,"ines":2618,"Ġfie":2619,"Ġdest":2620,"Ġnay":2621,"Ġthither":2622,"Ġhide":2623,"athar":2624,"Ġbeast":2625,"ley":2626,"Ġreb":2627,"raw":2628,"als":2629,"alth":2630,"cks":2631,"thumber":2632,"host":2633,"asters":2634,"feit":2635,"aked":2636,"pey":2637,"Ġalmost":2638,"ully":2639,"Ġscar":2640,"Ġsmall":2641,"Ġpresently":2642,"Ġfaults":2643,"Ġdepart":2644,"Ġsecret":2645,"Ġsubjects":2646,"Ġdefend":2647,"Ġpossess":2648,"atharina":2649,"thumberland":2650,"Con":2651,"DI":2652,"GI":2653,"IEL":2654,"Pl":2655,"VIR":2656,"Whi":2657,"aul":2658,"hind":2659,"ying":2660,"Ġtear":2661,"Ġwert":2662,"rey":2663,"Ġben":2664,"Ġbase":2665,"Ġbirth":2666,"Ġfill":2667,"Ġfond":2668,"Ġlab":2669,"arl":2670,"Ġpain":2671,"inger":2672,"Ġbec":2673,"Ġform":2674,"Ġeas":2675,"Ġstru":2676,"Ġliving":2677,"rue":2678,"though":2679,"Ġgoodly":2680,"Ġwhence":2681,"ĠGREY":2682,"Ġusurp":2683,"cience":2684,"Ġtrump":2685,"Ġhearing":2686,"Ġslaughter":2687,"Ġperform":2688,"Ġwrit":2689,"perate":2690,"ledge":2691,"Stay":2692,"Stand":2693,"Ġchance":2694,"PERDI":2695,"Ġvirtuous":2696,"Ġquickly":2697,"MONTAGUE":2698,"Ġdamn":2699,"ural":2700,"ohemia":2701,"GILIA":2702,"VIRGILIA":2703,"PERDITA":2704,"Ab":2705,"Doth":2706,"Peace":2707,"SET":2708,"SLY":2709,"ding":2710,"eem":2711,"gg":2712,"iest":2713,"over":2714,"oss":2715,"ror":2716,"your":2717,"ze":2718,"Ġut":2719,"Ġtor":2720,"Ġay":2721,"Ġmatch":2722,"Ġmild":2723,"Ġwild":2724,"read":2725,"isure":2726,"Ġfier":2727,"ony":2728,"Ġca":2729,"Ġcertain":2730,"arn":2731,"Ġpu":2732,"Ġpit":2733,"ingly":2734,"sem":2735,"Ġinj":2736,"Ġins":2737,"Ġinno":2738,"eds":2739,"edant":2740,"Ġur":2741,"Ġshad":2742,"Think":2743,"Ġknee":2744,"Ġkneel":2745,"astard":2746,"ustom":2747,"Ġblows":2748,"ĠSt":2749,"ĠOxford":2750,"Ġquiet":2751,"Ġproceed":2752,"ĠPaul":2753,"Ġhadst":2754,"Ġoffence":2755,"Ġadm":2756,"Ġpleas":2757,"force":2758,"Ġaffection":2759,"Ġslew":2760,"IANA":2761,"Ġlawful":2762,"Ġglad":2763,"bling":2764,"Ġweeping":2765,"MARIANA":2766,"Ġsoldier":2767,"Ġawhile":2768,"Ġdeserved":2769,"Ġexecution":2770,"ĠCoriolanus":2771,"Ġguilty":2772,"Ġpretty":2773,"ĠPompey":2774,"Ġangry":2775,"Fa":2776,"Mar":2777,"Master":2778,"PAR":2779,"RA":2780,"VINCENTIO":2781,"awn":2782,"dge":2783,"fully":2784,"gue":2785,"ked":2786,"med":2787,"ual":2788,"vol":2789,"zen":2790,"Ġap":2791,"Ġshi":2792,"Ġsho":2793,"Ġmed":2794,"Ġmod":2795,"Ġwalk":2796,"Ġfam":2797,"Ġfled":2798,"eness":2799,"Ġyear":2800,"Ġob":2801,"Ġocc":2802,"Ġhap":2803,"Ġmeasure":2804,"Ġforsw":2805,"adua":2806,"Ġreign":2807,"Ġdoom":2808,"ames":2809,"Ġnob":2810,"rupt":2811,"Ġourselves":2812,"Ġfavour":2813,"Ġneck":2814,"Ġshows":2815,"ended":2816,"Ġblow":2817,"Ġgovern":2818,"Ġwouldst":2819,"Ġletters":2820,"Ġunc":2821,"Ġunk":2822,"Ġworst":2823,"Ġspeaks":2824,"Ġmarch":2825,"ighb":2826,"ĠKatharina":2827,"Ġgreater":2828,"Ġleisure":2829,"osition":2830,"Ġtreason":2831,"ĠEnglish":2832,"Ġbanishment":2833,"Ġsense":2834,"remio":2835,"Ġcondemn":2836,"ointed":2837,"Ġdishonour":2838,"Ġclouds":2839,"Ġbreathe":2840,"Ġforbid":2841,"Ġliberty":2842,"Ġladies":2843,"Ġtrouble":2844,"rumio":2845,"ĠIsabel":2846,"counter":2847,"antagen":2848,"PARIS":2849,":'":2850,"Int":2851,"Out":2852,"Too":2853,"While":2854,"aves":2855,"acle":2856,"dle":2857,"house":2858,"rim":2859,"rous":2860,"ĠX":2861,"Ġsort":2862,"Ġmorrow":2863,"Ġwon":2864,"Ġdry":2865,"Ġcru":2866,"Ġlan":2867,"Ġlist":2868,"Ġlaid":2869,"aring":2870,"Ġobey":2871,"Ġheld":2872,"vel":2873,"ster":2874,"ators":2875,"Ġbehind":2876,"set":2877,"Ġnote":2878,"Ġstor":2879,"ider":2880,"Ġref":2881,"Ġlived":2882,"urs":2883,"Ġaside":2884,"Ġdog":2885,"Ġnoise":2886,"Ġseat":2887,"iles":2888,"Ġvain":2889,"ĠMerc":2890,"ĠBohemia":2891,"Ġletter":2892,"Ġjoin":2893,"ounds":2894,"Ġprosper":2895,"Ġrough":2896,"Ġabove":2897,"ize":2898,"Ġremain":2899,"Ġlonger":2900,"Ġwomb":2901,"Ġneeds":2902,"Ġchoose":2903,"Ġchurch":2904,"Ġprisoner":2905,"Ġsecond":2906,"Ġtemp":2907,"Ġgolden":2908,"undred":2909,"Ġdispatch":2910,"Ġpiece":2911,"Ġfresh":2912,"Ġignor":2913,"Ġbecause":2914,"antagenet":2915,"!--":2916,"Am":2917,"De":2918,"DOR":2919,"EW":2920,"En":2921,"Hark":2922,"LAR":2923,"Pr":2924,"Su":2925,"TIUS":2926,"bb":2927,"ban":2928,"cal":2929,"ffect":2930,"him":2931,"iled":2932,"ny":2933,"ts":2934,"under":2935,"ulet":2936,"ĠNow":2937,"Ġtent":2938,"Ġsch":2939,"Ġsus":2940,"Ġsaint":2941,"Ġmut":2942,"inius":2943,"Ġbig":2944,"Ġbroke":2945,"Ġbones":2946,"Ġfat":2947,"Ġfine":2948,"Ġfive":2949,"erle":2950,"itors":2951,"Ġdrown":2952,"Ġcitizens":2953,"Ġlen":2954,"Ġlow":2955,"Ġlust":2956,"Ġlau":2957,"Ġthreat":2958,"Ġhundred":2959,"Ġobed":2960,"Ġpet":2961,"vey":2962,"ang":2963,"Ġoft":2964,"Ġbend":2965,"Ġbell":2966,"Ġind":2967,"ceit":2968,"lease":2969,"ety":2970,"Ġeffect":2971,"Ġyourselves":2972,"Ġstood":2973,"Ġstain":2974,"Ġsteel":2975,"Ġsteal":2976,"ords":2977,"asion":2978,"Ġrevere":2979,"Ġsole":2980,"ARIEL":2981,"ease":2982,"Ġknees":2983,"ular":2984,"icious":2985,"Ġconqu":2986,"ieu":2987,"Ġblessed":2988,"ĠGaunt":2989,"ĠGremio":2990,"Ġshed":2991,"ĠLet":2992,"ĠLEW":2993,"Ġswift":2994,"ĠHortensio":2995,"Ġgrand":2996,"Ġproclaim":2997,"ĠPr":2998,"ĠPadua":2999,"Ġsaf":3000,"ume":3001,"ĠWatch":3002,"istress":3003,"Ġexc":3004,"Ġdesperate":3005,"Ġslander":3006,"Ġprecious":3007,"Ġbears":3008,"Ġappare":3009,"Ġconscience":3010,"Ġentertain":3011,"ontent":3012,"Ġpride":3013,"Sirrah":3014,"uthor":3015,"Ġglory":3016,"Ġdouble":3017,"atesby":3018,"Ġwoes":3019,"posed":3020,"Ġlands":3021,"Ġsentence":3022,"ĠNorthumberland":3023,"Ġdrunk":3024,"Ġtowards":3025,"ĠCapulet":3026,"Unto":3027,"Ġforgot":3028,"Ġwisdom":3029,"Ġvenge":3030,"Sweet":3031,"Ġvictory":3032,"Ġkinsman":3033,"ĠXI":3034,"LARTIUS":3035,"ĠLEWIS":3036,"ĠWatchman":3037,";'":3038,"Bel":3039,"Could":3040,"Hear":3041,"MP":3042,"Me":3043,"Pardon":3044,"Pedant":3045,"RTIS":3046,"bray":3047,"den":3048,"gment":3049,"hn":3050,"iance":3051,"ohn":3052,"pir":3053,"ude":3054,"vail":3055,"which":3056,"head":3057,"Ġauthor":3058,"Ġsour":3059,"Ġmount":3060,"Ġmethinks":3061,"Ġmoney":3062,"Ġmasters":3063,"rent":3064,"rence":3065,"Ġfe":3066,"Ġfru":3067,"Ġfought":3068,"Ġfew":3069,"Ġdied":3070,"Ġdeter":3071,"Ġcapt":3072,"Ġpun":3073,"owbray":3074,"Ġhair":3075,"irl":3076,"Ġeld":3077,"Ġstud":3078,"estion":3079,"Ġdoing":3080,"iful":3081,"Ġseal":3082,"ility":3083,"ĠCa":3084,"cted":3085,"ETER":3086,"Ġmanner":3087,"ĠEarl":3088,"ĠGo":3089,"ĠGrumio":3090,"Ġknowledge":3091,"umerle":3092,"Ġenjoy":3093,"Ġran":3094,"ĠAnt":3095,"Within":3096,"Ġalive":3097,"Ġabro":3098,"ways":3099,"Ġhonours":3100,"Ġwarm":3101,"ations":3102,"Ġdeadly":3103,"Ġkept":3104,"Ġcontr":3105,"Ġcontin":3106,"Ġarmy":3107,"Ġlordship":3108,"Ġguest":3109,"Ġguess":3110,"CURTIS":3111,"Ġpromised":3112,"comes":3113,"eeper":3114,"Ġwretched":3115,"Ġdespair":3116,"Ġcheeks":3117,"SAMP":3118,"Ġlabour":3119,"Ġstruck":3120,"Faith":3121,"Ġdeterm":3122,"SAMPSON":3123,"'re":3124,":--":3125,"BU":3126,"Br":3127,"Citizens":3128,"Dis":3129,"EX":3130,"Either":3131,"IGON":3132,"bury":3133,"ey":3134,"good":3135,"mit":3136,"take":3137,"Ġtry":3138,"Ġteach":3139,"Ġaid":3140,"ounce":3141,"Ġsim":3142,"reed":3143,"Ġbastard":3144,"orious":3145,"llow":3146,"ited":3147,"Ġdance":3148,"Ġcorn":3149,"Ġcred":3150,"Ġcried":3151,"Ġpal":3152,"Ġhel":3153,"Ġhealth":3154,"stant":3155,"utio":3156,"ourn":3157,"Ġliest":3158,"Ġdeg":3159,"Ġdemand":3160,"Ġshake":3161,"eaven":3162,"ament":3163,"Ġsever":3164,"Ġherself":3165,"Ġspent":3166,"ĠMaster":3167,"ĠMowbray":3168,"Ġwhether":3169,"Ġamong":3170,"Ġshepherd":3171,"othing":3172,"ppy":3173,"Ġunp":3174,"Ġunw":3175,"ĠHow":3176,"Ġquoth":3177,"Ġprov":3178,"umb":3179,"Ġplant":3180,"ĠWill":3181,"ĠWhy":3182,"osed":3183,"Ġencounter":3184,"Ġrot":3185,"Ġofficer":3186,"Ġbrothers":3187,"Ġearly":3188,"Ġhonourable":3189,"Ġflowers":3190,"LEY":3191,"Ġcalls":3192,"Ġwhite":3193,"Ġremed":3194,"Ġmoved":3195,"Ġaccount":3196,"ewis":3197,"Ġkindred":3198,"Ġpriest":3199,"Ġguard":3200,"Ġcharity":3201,"Ġunderstand":3202,"Ġfoolish":3203,"Ġhumble":3204,"Ġcounter":3205,"Ġdreams":3206,"Ġgreet":3207,"ANTIGON":3208,"Ġvalour":3209,"Ġjudge":3210,"Ġwretch":3211,"Ġbeggar":3212,"Ġsummer":3213,"Ġtriumph":3214,"Ġcruel":3215,"BURY":3216,"ANTIGONUS":3217,"Bet":3218,"Fear":3219,"Lo":3220,"Mine":3221,"Made":3222,"TCLIFF":3223,"True":3224,"fall":3225,"mon":3226,"rison":3227,"ĠAnd":3228,"heart":3229,"ining":3230,"Ġwail":3231,"orthy":3232,"Ġfart":3233,"Ġfaint":3234,"ites":3235,"Ġdin":3236,"Ġdwell":3237,"Ġyea":3238,"Ġthro":3239,"Ġhung":3240,"Ġpack":3241,"Ġga":3242,"Ġgent":3243,"leep":3244,"Ġforce":3245,"Ġweary":3246,"Ġstone":3247,"Ġstars":3248,"ask":3249,"roy":3250,"Ġbutcher":3251,"ify":3252,"Ġseven":3253,"Ġanon":3254,"Ġours":3255,"ĠCom":3256,"Ġneighb":3257,"ĠRoman":3258,"Ġvie":3259,"ief":3260,"Ġblame":3261,"Ġgoing":3262,"ĠLewis":3263,"Ġthereof":3264,"Ġunf":3265,"Ġuns":3266,"Ġenvy":3267,"Ġrise":3268,"Ġthinks":3269,"Ġrid":3270,"Ġparty":3271,"Ġadd":3272,"Ġothers":3273,"ĠJohn":3274,"ians":3275,"Ġkindness":3276,"Ġchast":3277,"Ġbids":3278,"Ġbright":3279,"Ġglass":3280,"Ġmiser":3281,"Ġcrave":3282,"Twas":3283,"Ġwinter":3284,"Ġmonth":3285,"Ġminister":3286,"Ġwalls":3287,"Ġextrem":3288,"Ġsatisfied":3289,"Ġprivate":3290,"ĠVolsces":3291,"Ġidle":3292,"Ġscarce":3293,"Ġbenef":3294,"RATCLIFF":3295,"Ġlaugh":3296,"Ġvengeance":3297,"Ġabroad":3298,"Ġview":3299,"After":3300,"Bid":3301,"BIS":3302,"Fie":3303,"Gentle":3304,"HOP":3305,"Ne":3306,"Never":3307,"Signior":3308,"Under":3309,"aff":3310,"gra":3311,"ners":3312,"ope":3313,"shall":3314,"ued":3315,"vious":3316,"whe":3317,"woman":3318,"Ġver":3319,"incentio":3320,"Ġwre":3321,"Ġwench":3322,"rees":3323,"have":3324,"orous":3325,"Ġfirm":3326,"Ġcir":3327,"Ġcorse":3328,"enes":3329,"Ġlest":3330,"Ġhol":3331,"vell":3332,"ott":3333,"omas":3334,"att":3335,"ating":3336,"Ġincl":3337,"cell":3338,"utland":3339,"Ġformer":3340,"Ġease":3341,"riar":3342,"ident":3343,"Ġrel":3344,"Ġreceived":3345,"Ġdeal":3346,"amp":3347,"Ġsport":3348,"Ġfaire":3349,"ANLEY":3350,"ĠRutland":3351,"Ġvile":3352,"Ġshrew":3353,"antua":3354,"ĠMantua":3355,"Ġconcl":3356,"Ġconvey":3357,"Ġgod":3358,"allow":3359,"ĠBarn":3360,"Ġarri":3361,"Ġunb":3362,"ĠHer":3363,"ĠVincentio":3364,"Ġmayst":3365,"eless":3366,"Ġquite":3367,"Ġprovost":3368,"IST":3369,"Ġtruly":3370,"Ġdism":3371,"Off":3372,"Ġfoes":3373,"Ġroot":3374,"Ġwherefore":3375,"Ġflower":3376,"Ġimag":3377,"Ġtrial":3378,"ailor":3379,"Ġsmo":3380,"Ġtrem":3381,"Ġfellows":3382,"rench":3383,"Ġchanged":3384,"Ġcover":3385,"Ġhumour":3386,"Ġboot":3387,"Ġswords":3388,"Ġdeputy":3389,"Ġcondition":3390,"Ġjudgment":3391,"change":3392,"Ġtyrant":3393,"Ġacqu":3394,"Ġevil":3395,"BALT":3396,"TYBALT":3397,"Whilst":3398,"Ġeasy":3399,"ĠMercutio":3400,"Ġschool":3401,"Ġexcuse":3402,"Ġfruit":3403,"BISHOP":3404,"'?":3405,"AL":3406,"Bl":3407,"Des":3408,"Ex":3409,"KEN":3410,"Methinks":3411,"Put":3412,"Tut":3413,"ault":3414,"after":3415,"con":3416,"ek":3417,"ead":3418,"ered":3419,"his":3420,"oot":3421,"pin":3422,"roth":3423,"rate":3424,"shi":3425,"ta":3426,"vish":3427,"Ġtaken":3428,"Ġwither":3429,"Ġba":3430,"Ġbrow":3431,"Ġbite":3432,"Ġbrows":3433,"Ġfain":3434,"Ġfeed":3435,"erona":3436,"Ġdust":3437,"Ġdull":3438,"enance":3439,"Ġthunder":3440,"Ġpains":3441,"anley":3442,"Ġgown":3443,"Ġgrown":3444,"Ġgift":3445,"Ġghost":3446,"Ġgirl":3447,"Ġbeha":3448,"Ġmeat":3449,"rift":3450,"Ġstab":3451,"Ġstoop":3452,"idings":3453,"ract":3454,"arden":3455,"Ġspe":3456,"Ġspake":3457,"Ġspring":3458,"ilia":3459,"ĠCatesby":3460,"Ġknave":3461,"AND":3462,"Ġvice":3463,"aste":3464,"Ġshore":3465,"Ġproof":3466,"Ġblest":3467,"Ġblind":3468,"ement":3469,"Ġsirrah":3470,"Ġunl":3471,"Ġquestion":3472,"Ġjoint":3473,"cians":3474,"ĠWe":3475,"ĠAl":3476,"ĠAumerle":3477,"Ġhonesty":3478,"ursed":3479,"Ġleaves":3480,"Ġtwice":3481,"aper":3482,"ĠKeeper":3483,"Ġprevent":3484,"OMAS":3485,"there":3486,"ĠMars":3487,"Ġrepent":3488,"Ġtraitors":3489,"twixt":3490,"Ġimport":3491,"Ġwrongs":3492,"Ġburied":3493,"ealous":3494,"place":3495,"Ġreasons":3496,"Alack":3497,"Ġsenate":3498,"Ġgreen":3499,"Ġaffair":3500,"acher":3501,"Ġchoice":3502,"azed":3503,"Ġdivine":3504,"ĠCorioli":3505,"Ġwhilst":3506,"Ġstop":3507,"Ġtyran":3508,"Ġprophe":3509,"Ġembrace":3510,"Ġmalice":3511,"BRAKEN":3512,"ĠPlantagenet":3513,"Ġsacred":3514,"Ġfiery":3515,"Ġinnocent":3516,"ĠPaulina":3517,"Ġleng":3518,"ĠPrince":3519,"Ġsafety":3520,"ĠCominius":3521,"BRAKENBURY":3522,"?'":3523,"Ad":3524,"DER":3525,"DON":3526,"Edward":3527,"GOR":3528,"Hence":3529,"Ind":3530,"MIST":3531,"Once":3532,"Richard":3533,"RESS":3534,"cha":3535,"draw":3536,"eld":3537,"go":3538,"mn":3539,"my":3540,"more":3541,"nat":3542,"op":3543,"oly":3544,"oard":3545,"pet":3546,"port":3547,"poll":3548,"sic":3549,"would":3550,"Ġed":3551,"ĠTo":3552,"Ġavo":3553,"Ġsits":3554,"inous":3555,"Ġwag":3556,"Ġwings":3557,"rehe":3558,"Ġbark":3559,"orry":3560,"Ġfury":3561,"Ġfinger":3562,"erset":3563,"itol":3564,"Ġcustom":3565,"enen":3566,"anch":3567,"omerset":3568,"Ġgross":3569,"Ġgarden":3570,"Ġinform":3571,"edious":3572,"Ġused":3573,"Ġweeds":3574,"Ġele":3575,"Ġeag":3576,"Ġstones":3577,"Ġdec":3578,"Ġdoor":3579,"Ġnose":3580,"Ġallow":3581,"think":3582,"Ġanger":3583,"ardine":3584,"Ġloath":3585,"Ġloyal":3586,"ellow":3587,"Ġfares":3588,"Ġnecess":3589,"Ġknight":3590,"ctise":3591,"Ġshr":3592,"Ġoracle":3593,"ĠOVER":3594,"Myself":3595,"hysic":3596,"Ġmayor":3597,"elve":3598,"Ġhollow":3599,"Ġsail":3600,"Ġplague":3601,"unning":3602,"Ġround":3603,"Ġfright":3604,"icked":3605,"Without":3606,"Ġalways":3607,"Ġrob":3608,"Ġrock":3609,"Ġwherein":3610,"Ġdesign":3611,"Wherein":3612,"aughters":3613,"Ġadieu":3614,"Ġcommend":3615,"Ġclaim":3616,"Ġprevail":3617,"Ġprayer":3618,"PETER":3619,"Ġplead":3620,"Ġperceive":3621,"Ġtroth":3622,"Ġrude":3623,"Ġtongues":3624,"Ġsubst":3625,"Ġsmile":3626,"Ġimprison":3627,"Ġcares":3628,"GREGOR":3629,"Ġdrawn":3630,"Ġempt":3631,"Ġwanton":3632,"Ġassist":3633,"unts":3634,"Ġtempt":3635,"Ġdeserve":3636,"Ġdelight":3637,"ĠCapitol":3638,"Ġpractise":3639,"Ġcheek":3640,"Ġabsence":3641,"ĠThomas":3642,"Ġdrop":3643,"Ġcreature":3644,"Ġtrumpets":3645,"Ġutter":3646,"Ġlangu":3647,"Ġignorant":3648,"Brother":3649,"Ġrotten":3650,"Ġremedy":3651,"Ġcirc":3652,"ĠBarnardine":3653,"DERBY":3654,"DONE":3655,"Indeed":3656,"MISTRESS":3657,"enenius":3658,"ĠOVERDONE":3659,"GREGORY":3660,"Art":3661,"CH":3662,"Dost":3663,"FORD":3664,"OX":3665,"Poor":3666,"Res":3667,"RICH":3668,"SOM":3669,"Turn":3670,"VAL":3671,"act":3672,"dy":3673,"eous":3674,"mion":3675,"sing":3676,"thi":3677,"what":3678,"yard":3679,"Ġes":3680,"ĠWhere":3681,"Ġtune":3682,"Ġtidings":3683,"Ġtedious":3684,"held":3685,"Ġaim":3686,"Ġaught":3687,"Ġship":3688,"Ġsens":3689,"Ġwent":3690,"Ġwont":3691,"Ġwives":3692,"Ġwicked":3693,"haps":3694,"isa":3695,"ises":3696,"onounce":3697,"Ġdur":3698,"Ġcre":3699,"Ġcell":3700,"Ġcure":3701,"Ġcarry":3702,"Ġcries":3703,"esy":3704,"Ġnumber":3705,"Ġlar":3706,"Ġloud":3707,"Ġthrust":3708,"Ġhit":3709,"Ġhid":3710,"Ġpil":3711,"Ġpair":3712,"othe":3713,"Ġbecomes":3714,"cend":3715,"utes":3716,"iment":3717,"rious":3718,"Ġstar":3719,"Ġstat":3720,"Ġsteed":3721,"ashi":3722,"Ġreceive":3723,"Ġasleep":3724,"Ġdew":3725,"Ġdeceived":3726,"Ġdeposed":3727,"Ġshar":3728,"this":3729,"ards":3730,"hant":3731,"Ġvantage":3732,"ERIA":3733,"ERSET":3734,"ĠMusic":3735,"Ġconj":3736,"ongs":3737,"ĠGrey":3738,"Ġsheep":3739,"Ġtherein":3740,"ĠSic":3741,"ĠSomerset":3742,"ĠVerona":3743,"Ġjealous":3744,"Ġshouldst":3745,"Ġproper":3746,"Ġras":3747,"Ġoutward":3748,"Ġwhole":3749,"Ġoffend":3750,"ĠYour":3751,"Ġalas":3752,"Ġheav":3753,"Ġearn":3754,"eeth":3755,"Ġmeaning":3756,"aced":3757,"Ġchief":3758,"Ġbegins":3759,"ĠJove":3760,"Ġruin":3761,"loved":3762,"ission":3763,"Ġresign":3764,"Ġfollows":3765,"Ġtread":3766,"Ġtreacher":3767,"ethought":3768,"Ġbanished":3769,"Ġpassing":3770,"Ġwoful":3771,"Ġdevise":3772,"Ġfollowers":3773,"Ġfools":3774,"Ġmaids":3775,"Show":3776,"Ġadvise":3777,"Ġgives":3778,"itting":3779,"Ġrememb":3780,"Ġawake":3781,"Ġborne":3782,"Ġsupper":3783,"Ġlamb":3784,"Ġcondu":3785,"aze":3786,"Ġsilence":3787,"Ġpossible":3788,"Having":3789,"Ġprofess":3790,"Ġdespite":3791,"MOND":3792,"Ġgarments":3793,"Ġcastle":3794,"Ġthrive":3795,"Ġexpress":3796,"Ġundone":3797,"Ġdreadful":3798,"Ġbabe":3799,"Ġprotect":3800,"Besides":3801,"Ġbroken":3802,"Ġviolent":3803,"ĠChristian":3804,"Ġpubl":3805,"Ġoccasion":3806,"Ġnobles":3807,"Into":3808,"ursday":3809,"Ġfatal":3810,"Ġbelly":3811,"Ġauthority":3812,"Ġsimple":3813,"Ġfarther":3814,"Ġthroat":3815,"Ġbenefit":3816,"pinion":3817,"Ġaffairs":3818,"pollo":3819,"OXFORD":3820,"RICHMOND":3821,"SOMERSET":3822,"VALERIA":3823,"mione":3824,"AMIL":3825,"BUS":3826,"Great":3827,"HY":3828,"Hast":3829,"LIUS":3830,"MOP":3831,"MAMIL":3832,"Per":3833,"Tybalt":3834,"Tailor":3835,"Very":3836,"app":3837,"cing":3838,"can":3839,"eg":3840,"fl":3841,"father":3842,"gle":3843,"iond":3844,"oat":3845,"pr":3846,"ron":3847,"son":3848,"ub":3849,"Ġer":3850,"Ġir":3851,"ĠThere":3852,"Ġtort":3853,"Ġtaste":3854,"Ġsan":3855,"Ġsix":3856,"Ġsorry":3857,"Ġwine":3858,"Ġwander":3859,"Ġband":3860,"Ġbond":3861,"erved":3862,"itude":3863,"Ġdet":3864,"Ġdue":3865,"Ġcal":3866,"Ġcam":3867,"Ġcunning":3868,"ene":3869,"enn":3870,"Ġnine":3871,"Ġnames":3872,"Ġlend":3873,"arch":3874,"Ġtop":3875,"Ġpin":3876,"Ġpawn":3877,"Ġpaper":3878,"Ġphysic":3879,"Ġgain":3880,"Ġgage":3881,"Ġbelike":3882,"Ġbeheld":3883,"Ġinfect":3884,"ldom":3885,"eding":3886,"utation":3887,"Ġweight":3888,"Ġweap":3889,"ills":3890,"Ġequ":3891,"enture":3892,"Ġstore":3893,"Ġstep":3894,"Ġstock":3895,"Ġstuff":3896,"Ġrenown":3897,"rand":3898,"Ġlip":3899,"Ġdeare":3900,"room":3901,"eave":3902,"usion":3903,"iffe":3904,"Ġseas":3905,"Ġsup":3906,"run":3907,"Ġange":3908,"Ġlod":3909,"ello":3910,"Ġspend":3911,"Ġspare":3912,"hop":3913,"Ġvan":3914,"ouses":3915,"Ġshut":3916,"ustice":3917,"ĠMOW":3918,"ĠMenenius":3919,"olix":3920,"Ġsway":3921,"Ġbrook":3922,"Ġkingly":3923,"ĠBona":3924,"Ġunnat":3925,"ĠHarry":3926,"Ġquit":3927,"imely":3928,"Ġenvious":3929,"Ġrash":3930,"Ġdisd":3931,"ABHOR":3932,"Ġroom":3933,"Ġexile":3934,"Ġexcell":3935,"Ġdesert":3936,"Ġgentlewoman":3937,"Ġflight":3938,"Ġtwelve":3939,"Ġparts":3940,"Ġprey":3941,"THOMAS":3942,"Ġperil":3943,"Ġperish":3944,"Ġtrans":3945,"iteous":3946,"ĠFriar":3947,"Ġwhither":3948,"swain":3949,"Ġuntil":3950,"Ġaffect":3951,"Ġlean":3952,"Ġlegs":3953,"orses":3954,"Ġkeeps":3955,"Ġaccus":3956,"STANLEY":3957,"Ġprize":3958,"Ġpursu":3959,"Ġchair":3960,"Ġcountenance":3961,"Ġpleased":3962,"ounty":3963,"Ġhumbly":3964,"Ġcourtesy":3965,"Ġadvantage":3966,"Ġcurst":3967,"ploy":3968,"Ġspirits":3969,"Two":3970,"Ġintend":3971,"Ġdenied":3972,"ancy":3973,"Ġdisposition":3974,"Ġbetwixt":3975,"Ġsilver":3976,"Ġdelay":3977,"Ġresolve":3978,"ĠThursday":3979,"Ġwedding":3980,"Ġsighs":3981,"Ġhurt":3982,"BRAY":3983,"Ġcolour":3984,"Ġclear":3985,"Ġowe":3986,"Ġprepared":3987,"Ġdamned":3988,"Ġshadow":3989,"Ġpleasant":3990,"Ġforsworn":3991,"Ġstorm":3992,"Death":3993,"Ġthreaten":3994,"Ġconquer":3995,"Ġpunish":3996,"ĠCaius":3997,"Ġcontrary":3998,"EXETER":3999,"Ġpalace":4000,"Ġdinner":4001,"Ġneighbour":4002,"Ġmiserable":4003,"Ġspeci":4004,"Ġempty":4005,"ĠMusician":4006,"BUSHY":4007,"MOPSA":4008,"MAMILLIUS":4009,"iondello":4010,"Ġsanct":4011,"ĠMOWBRAY":4012,"olixenes":4013,"ABHORSON":4014,"CY":4015,"Cousin":4016,"Ed":4017,"Know":4018,"None":4019,"Nothing":4020,"Pre":4021,"Ret":4022,"Right":4023,"Rem":4024,"Rep":4025,"Sc":4026,"Sha":4027,"Widow":4028,"bow":4029,"born":4030,"grace":4031,"hor":4032,"hore":4033,"lar":4034,"mity":4035,"oc":4036,"oke":4037,"par":4038,"ping":4039,"pic":4040,"pass":4041,"tune":4042,"urious":4043,"we":4044,"wise":4045,"yond":4046,"ĠWhen":4047,"Ġtut":4048,"Ġtable":4049,"Ġscept":4050,"Ġmiss":4051,"Ġmurderer":4052,"Ġmaking":4053,"Ġmotion":4054,"Ġmourn":4055,"Ġwot":4056,"Ġwood":4057,"Ġwol":4058,"Ġwond":4059,"rease":4060,"Ġbas":4061,"Ġbare":4062,"Ġball":4063,"Ġbud":4064,"ising":4065,"Ġfle":4066,"Ġfro":4067,"Ġfee":4068,"Ġfashi":4069,"erve":4070,"Ġdi":4071,"Ġdign":4072,"Ġdies":4073,"Ġdag":4074,"Ġdaughters":4075,"Ġcens":4076,"Ġcup":4077,"Ġcalm":4078,"ency":4079,"Ġnaked":4080,"Ġyonder":4081,"Ġopinion":4082,"Ġpure":4083,"Ġport":4084,"Ġpainted":4085,"Ġpiteous":4086,"Ġheed":4087,"ote":4088,"ane":4089,"Ġgate":4090,"Ġbew":4091,"Ġbeloved":4092,"sequ":4093,"irg":4094,"Ġmend":4095,"ourish":4096,"Ġweigh":4097,"rib":4098,"Ġstory":4099,"Ġreward":4100,"urance":4101,"Ġdebt":4102,"Ġones":4103,"ARCH":4104,"amed":4105,"Ġseest":4106,"Three":4107,"ruly":4108,"thou":4109,"Ġfail":4110,"ERCY":4111,"que":4112,"Ġgoodness":4113,"Ġpronounce":4114,"Ġcomple":4115,"ĠMessenger":4116,"Ġamb":4117,"Ġamen":4118,"outs":4119,"oler":4120,"Ġhatred":4121,"Ġtheirs":4122,"ĠBiondello":4123,"Ġarg":4124,"igence":4125,"Ġquench":4126,"Ġhopes":4127,"cio":4128,"cian":4129,"Ġseeing":4130,"ĠPro":4131,"ĠPeter":4132,"ĠPisa":4133,"ĠPolixenes":4134,"ĠPERCY":4135,"umble":4136,"Ġplot":4137,"Ġdiss":4138,"Ġexpect":4139,"Ġslow":4140,"Ġado":4141,"THAS":4142,"ĠDid":4143,"Ġperfect":4144,"Ġperpet":4145,"Ġwrath":4146,"Thanks":4147,"lesome":4148,"ĠFl":4149,"Ġremains":4150,"Ġcrowns":4151,"Ġhark":4152,"Ġcourage":4153,"Ġwits":4154,"clock":4155,"Ġaccess":4156,"Ġaccuse":4157,"Ġfolly":4158,"Only":4159,"Ġends":4160,"Ġendure":4161,"Ġneedful":4162,"Still":4163,"Ġbodies":4164,"Ġjoys":4165,"Ġjoyful":4166,"Ġfortunes":4167,"Ġmistake":4168,"Ġnatural":4169,"Ġhappiness":4170,"Ġmisery":4171,"Ġundertake":4172,"Ġchide":4173,"Ġattempt":4174,"Ġadvance":4175,"Ġcurses":4176,"Ġemploy":4177,"Ġassurance":4178,"Ġpersu":4179,"Ġdiscontent":4180,"Ġsenators":4181,"Ġcrack":4182,"Ġintent":4183,"Ġsometime":4184,"Ġwounded":4185,"Ġspoken":4186,"Ġdrum":4187,"Ġmarket":4188,"cape":4189,"Ġwaters":4190,"Ġcursed":4191,"Ġinstruct":4192,"Ġinstrument":4193,"ĠNap":4194,"ĠRivers":4195,"Ġterror":4196,"Ġresolved":4197,"chance":4198,"Ġwhiles":4199,"Ġcorrupt":4200,"ney":4201,"Ġburthen":4202,"Ġgriev":4203,"Ġduked":4204,"Ġaccept":4205,"Ġgroan":4206,"BALTHAS":4207,"Ġcolours":4208,"Ġpenit":4209,"Ġprotest":4210,"Ġprinces":4211,"Ġprincess":4212,"ĠStanley":4213,"Ġgovernment":4214,"Prithee":4215,"Ġobedience":4216,"Ġpetition":4217,"Ġsolemn":4218,"Believe":4219,"Ġcontinue":4220,"Ġcredit":4221,"Ġseveral":4222,"hearted":4223,"Ġwreck":4224,"Ġlanguage":4225,"Ġcircum":4226,"Ġdurst":4227,"Ġremembrance":4228,"Ġpublic":4229,"Ġunnatural":4230,"picion":4231,"Ġdukedom":4232,"BALTHASAR":4233,"?--":4234,"Ar":4235,"App":4236,"AEd":4237,"Bear":4238,"Boat":4239,"Father":4240,"FOL":4241,"Heaven":4242,"Love":4243,"Might":4244,"Mark":4245,"OS":4246,"Post":4247,"Page":4248,"Save":4249,"afe":4250,"bear":4251,"do":4252,"dds":4253,"ex":4254,"fer":4255,"gers":4256,"how":4257,"ipe":4258,"just":4259,"lic":4260,"oe":4261,"oved":4262,"ped":4263,"pro":4264,"sc":4265,"same":4266,"time":4267,"uary":4268,"val":4269,"vours":4270,"yr":4271,"ĠNay":4272,"ĠThey":4273,"Ġtest":4274,"Ġteeth":4275,"hest":4276,"Ġsink":4277,"Ġsins":4278,"Ġmag":4279,"Ġmile":4280,"ination":4281,"happy":4282,"ishop":4283,"Ġfame":4284,"erd":4285,"ita":4286,"Ġcock":4287,"Ġcease":4288,"ences":4289,"Ġnought":4290,"Ġled":4291,"aries":4292,"Ġhost":4293,"Ġhunt":4294,"Ġhouses":4295,"Ġhorses":4296,"Ġodd":4297,"Ġobs":4298,"Ġodds":4299,"Ġtomb":4300,"Ġpol":4301,"Ġpowers":4302,"strous":4303,"omp":4304,"omen":4305,"atic":4306,"atience":4307,"Ġbeyond":4308,"Ġhaz":4309,"uted":4310,"Ġmere":4311,"Ġisle":4312,"Ġisland":4313,"ourage":4314,"Ġeast":4315,"Ġits":4316,"Ġkin":4317,"idence":4318,"Ġrepe":4319,"Ġrealm":4320,"Ġshape":4321,"uses":4322,"ified":4323,"Ġseize":4324,"Those":4325,"Ġspite":4326,"Ġfaces":4327,"ĠCan":4328,"ĠCal":4329,"ĠROS":4330,"Ġvault":4331,"Ġvirg":4332,"Ġshun":4333,"ants":4334,"Ġcomest":4335,"Ġmanners":4336,"ĠEl":4337,"icular":4338,"Ġconc":4339,"ieved":4340,"Ġblock":4341,"Ġblush":4342,"ĠGood":4343,"ared":4344,"arent":4345,"olute":4346,"Ġhereafter":4347,"Ġswallow":4348,"Ġbrings":4349,"ĠSo":4350,"ĠBl":4351,"elt":4352,"Ġqual":4353,"Ġjour":4354,"Young":4355,"akest":4356,"ument":4357,"Ġfathers":4358,"ĠWho":4359,"Ġenmity":4360,"Ġring":4361,"CAS":4362,"ĠYet":4363,"Ġalter":4364,"Ġlooking":4365,"Ġfriendly":4366,"Ġslay":4367,"Ġflies":4368,"ĠTake":4369,"Ġfairly":4370,"tled":4371,"Ġadvers":4372,"Ġclo":4373,"Ġwrite":4374,"Ġtrade":4375,"Ġways":4376,"Ġscope":4377,"Ġscene":4378,"aintain":4379,"they":4380,"Ġkey":4381,"ĠFrench":4382,"Ġapprehe":4383,"Ġcontract":4384,"Ġwhore":4385,"Ġarmour":4386,"ctions":4387,"Ġuntimely":4388,"ression":4389,"Ġimm":4390,"Ġrepair":4391,"Ġrule":4392,"Ġleads":4393,"Ġslept":4394,"Ġaccord":4395,"Ġpurcha":4396,"Ġcompass":4397,"orset":4398,"Ġseeming":4399,"Ġbrain":4400,"Ġglorious":4401,"Ġimposs":4402,"Ġpassage":4403,"Ġmaiden":4404,"Ġhateful":4405,"Ġstrew":4406,"Ġturns":4407,"uteous":4408,"Ġinstant":4409,"Ġboar":4410,"Ġwants":4411,"NORFOL":4412,"Ġdiscover":4413,"Ġcommanded":4414,"Ġhanging":4415,"Ġcontented":4416,"Ġdares":4417,"Ġfreely":4418,"Ġgrey":4419,"Ġservices":4420,"Ġtemper":4421,"Ġdrums":4422,"Ġcholer":4423,"Ġgrows":4424,"Ġdeserves":4425,"noon":4426,"ĠLucio":4427,"Ġgranted":4428,"Comm":4429,"Ġterms":4430,"Ġincrease":4431,"Ġresolution":4432,"Ġshortly":4433,"Ġvex":4434,"Ġpraise":4435,"Ġabsent":4436,"Ġvenom":4437,"Ġdrops":4438,"Ġprivile":4439,"Ġrespected":4440,"Ġframe":4441,"Beseech":4442,"Ġapproach":4443,"Ġcomplain":4444,"Ġtorment":4445,"Ġunknown":4446,"Ġprosperous":4447,"DORCAS":4448,"Ġsuspicion":4449,"Ġreverend":4450,"Ġapparel":4451,"Ġcaptain":4452,"Ġdegree":4453,"ĠHermione":4454,"Ġsmooth":4455,"Ġlarge":4456,"Ġsharp":4457,"Ġearnest":4458,"Ġcamest":4459,"Ġdisdain":4460,"Ġexcellent":4461,"Ġsceptre":4462,"Ġdagger":4463,"ĠNaples":4464,"Boatswain":4465,"ĠROSS":4466,"NORFOLK":4467,"Amen":4468,"Boy":4469,"Came":4470,"Cons":4471,"DIN":4472,"Dear":4473,"FER":4474,"GH":4475,"Ghost":4476,"Has":4477,"Long":4478,"Mistress":4479,"NS":4480,"Please":4481,"RR":4482,"Roman":4483,"Set":4484,"Wilt":4485,"Worthy":4486,"aces":4487,"aily":4488,"bri":4489,"bra":4490,"dis":4491,"fret":4492,"gl":4493,"gar":4494,"iven":4495,"iate":4496,"ipp":4497,"kin":4498,"ker":4499,"law":4500,"pul":4501,"uce":4502,"wife":4503,"ĠTherefore":4504,"Ġtame":4505,"Ġtaught":4506,"Ġtap":4507,"Ġtide":4508,"Ġable":4509,"Ġsqu":4510,"Ġsouth":4511,"Ġmor":4512,"Ġmill":4513,"Ġmessenger":4514,"iny":4515,"reg":4516,"reland":4517,"reme":4518,"Ġbird":4519,"Ġbury":4520,"isper":4521,"Ġfig":4522,"Ġfurn":4523,"itus":4524,"Ġdig":4525,"Ġdress":4526,"Ġdaily":4527,"Ġchat":4528,"Ġcatch":4529,"Ġlark":4530,"Ġthorn":4531,"Ġthief":4532,"Ġparent":4533,"ĠIreland":4534,"ances":4535,"omans":4536,"ater":4537,"ature":4538,"atcl":4539,"Ġbef":4540,"Ġbeard":4541,"Ġbethink":4542,"Ġmeant":4543,"Ġweather":4544,"Ġwept":4545,"ades":4546,"ricians":4547,"Ġstol":4548,"Ġstamp":4549,"Ġrej":4550,"Ġrecom":4551,"Ġrevol":4552,"Ġlion":4553,"aline":4554,"Ġwilling":4555,"Ġwillingly":4556,"Ġnobl":4557,"Ġnobly":4558,"andal":4559,"Ġseason":4560,"Ġsull":4561,"Ġsuck":4562,"Ġspr":4563,"Ġspur":4564,"ĠCo":4565,"ĠCons":4566,"Ġknife":4567,"ĠRos":4568,"ĠRomans":4569,"Ġvows":4570,"Ġcomb":4571,"ĠMay":4572,"ĠMil":4573,"Ġamazed":4574,"Ġconce":4575,"Ġconceit":4576,"Ġconstant":4577,"ember":4578,"Help":4579,"Ġlovely":4580,"Ġswell":4581,"ĠST":4582,"ĠBe":4583,"ĠBer":4584,"Ġunless":4585,"Ġworn":4586,"Ġworthi":4587,"Ġjew":4588,"Ġmuster":4589,"Ġprovo":4590,"ĠPray":4591,"Ġruth":4592,"ĠAd":4593,"ĠApollo":4594,"Ġdisper":4595,"Ġabhor":4596,"Ġroar":4597,"Ġrogue":4598,"Ġtells":4599,"Ġwhereof":4600,"Ġwarlike":4601,"Ġhasty":4602,"Ġfears":4603,"Ġgreatest":4604,"oldier":4605,"Ġparticular":4606,"Ġadver":4607,"Ġcommitted":4608,"Ġclam":4609,"ĠDo":4610,"Ġperj":4611,"Ġperforce":4612,"Ġwrought":4613,"liament":4614,"Ġnorth":4615,"Ġpress":4616,"Ġrap":4617,"Ġraise":4618,"ĠFarewell":4619,"Ġbegun":4620,"forth":4621,"ĠJack":4622,"Ġconsider":4623,"Ġpeers":4624,"love":4625,"Ġwitch":4626,"Ġaccused":4627,"Ġkindly":4628,"Ġcompan":4629,"Ġsmiles":4630,"Ġcounty":4631,"Ġfinds":4632,"Stri":4633,"Ġbraw":4634,"Ġcharged":4635,"Ġpassion":4636,"Clarence":4637,"Ġholds":4638,"GREEN":4639,"Ġstreets":4640,"Ġbuild":4641,"Ġsoundly":4642,"Ġserves":4643,"Ġboots":4644,"Ġadvice":4645,"Ġcurrent":4646,"Ġrevenged":4647,"Ġassured":4648,"Ġsends":4649,"Ġgiving":4650,"Ġwinds":4651,"Ġhanged":4652,"Ġdarest":4653,"Ġintell":4654,"Ġsupposed":4655,"Ġafford":4656,"ALONS":4657,"Whither":4658,"Ġhardly":4659,"Ġprofit":4660,"Ġparliament":4661,"Ġrecord":4662,"Ġveins":4663,"Ġwaste":4664,"Ġstopp":4665,"Until":4666,"Ġpieces":4667,"Ġwait":4668,"Ġgarland":4669,"Ġgrieve":4670,"Ġsky":4671,"Ġforbear":4672,"ĠPomfret":4673,"Ġdirect":4674,"Ġgroans":4675,"Ġthrice":4676,"Ġestate":4677,"erns":4678,"TYRR":4679,"Ġoppos":4680,"Ġdestroy":4681,"About":4682,"Ġurged":4683,"Ġaffections":4684,"Ġfamous":4685,"Ġhaply":4686,"DORSET":4687,"Supp":4688,"Ġlusty":4689,"Ġelder":4690,"Ġstudy":4691,"Ġcounterfeit":4692,"Gentlemen":4693,"Ġarrived":4694,"Ġbehalf":4695,"ĠMarshal":4696,"Ġavoid":4697,"Ġimprisonment":4698,"untsman":4699,"Ġrascal":4700,"Ġtreacherous":4701,"Ġconduct":4702,"Ġprotector":4703,"Ġspecial":4704,"Ġsanctuary":4705,"Ġperpetual":4706,"Ġgrievous":4707,"AEdile":4708,"Ġvirgin":4709,"Ġjourney":4710,"DINAND":4711,"FERDINAND":4712,"atcliff":4713,"ĠConspir":4714,"ALONSO":4715,"TYRREL":4716,";--":4717,"Acc":4718,"Bring":4719,"Coriol":4720,"Keep":4721,"Leave":4722,"Makes":4723,"Vols":4724,"af":4725,"cure":4726,"des":4727,"dig":4728,"eat":4729,"erer":4730,"fess":4731,"fellow":4732,"faced":4733,"grim":4734,"groom":4735,"ib":4736,"iving":4737,"ienn":4738,"lanch":4739,"master":4740,"mory":4741,"maid":4742,"nal":4743,"sha":4744,"ser":4745,"some":4746,"ties":4747,"upt":4748,"vior":4749,"wear":4750,"xeter":4751,"zz":4752,"Ġz":4753,"Ġing":4754,"ĠThen":4755,"Ġtask":4756,"Ġach":4757,"Ġapt":4758,"Ġaunt":4759,"Ġsy":4760,"Ġsal":4761,"Ġsire":4762,"Ġmult":4763,"Ġmaintain":4764,"Ġwing":4765,"Ġwide":4766,"Ġwhip":4767,"Ġwaking":4768,"reen":4769,"Ġbade":4770,"isbury":4771,"Ġfi":4772,"Ġfood":4773,"Ġfrow":4774,"Ġfun":4775,"Ġfeet":4776,"Ġfires":4777,"Ġfancy":4778,"erity":4779,"erby":4780,"itation":4781,"onci":4782,"Ġdow":4783,"Ġdim":4784,"Ġdri":4785,"Ġdying":4786,"Ġcher":4787,"Ġcaught":4788,"Ġcere":4789,"esar":4790,"essel":4791,"enant":4792,"Ġnail":4793,"Ġlin":4794,"Ġyond":4795,"Ġyoke":4796,"Ġthird":4797,"Ġhor":4798,"Ġhie":4799,"Ġpi":4800,"Ġpot":4801,"Ġpound":4802,"Ġpurse":4803,"Ġpier":4804,"vet":4805,"ative":4806,"sell":4807,"Ġinqu":4808,"etite":4809,"eder":4810,"utenant":4811,"Ġmelt":4812,"Ġmelanch":4813,"Ġfors":4814,"Ġforced":4815,"Ġforfeit":4816,"ourse":4817,"ourth":4818,"Ġevent":4819,"adv":4820,"aded":4821,"rick":4822,"Ġsting":4823,"Ġstro":4824,"Ġstout":4825,"Ġstret":4826,"Ġstroke":4827,"Ġreck":4828,"rac":4829,"ales":4830,"alisbury":4831,"Ġsore":4832,"Ġsooth":4833,"Ġdeceit":4834,"roll":4835,"ested":4836,"earer":4837,"amb":4838,"ams":4839,"aming":4840,"Ġsees":4841,"Ġalliance":4842,"Ġsue":4843,"ruction":4844,"ellion":4845,"Ġsple":4846,"ilence":4847,"Ġknaves":4848,"Ġvessel":4849,"ulate":4850,"arts":4851,"nty":4852,"ĠExeter":4853,"icy":4854,"Ġconfe":4855,"Ġblunt":4856,"ĠGive":4857,"ares":4858,"ĠLe":4859,"Ġsaying":4860,"ĠSoldier":4861,"Ġunjust":4862,"Ġunhappy":4863,"ignty":4864,"LIS":4865,"Ġgraves":4866,"ĠWell":4867,"Ġenforce":4868,"deem":4869,"ĠAll":4870,"ĠAway":4871,"irect":4872,"harge":4873,"Ġoffended":4874,"Ġdissem":4875,"Ġdisgrace":4876,"Ġalack":4877,"Ġalike":4878,"Ġalthough":4879,"Ġabide":4880,"Ġaboard":4881,"Noble":4882,"Ġrose":4883,"Ġexchange":4884,"Soft":4885,"ages":4886,"Ġdesires":4887,"Ġdescend":4888,"Ġslaves":4889,"Ġflood":4890,"Ġflatt":4891,"Ġtwain":4892,"ĠTitus":4893,"Ġbetray":4894,"Ġbetimes":4895,"Ġnewly":4896,"Ġparting":4897,"Ġpartly":4898,"Ġcalled":4899,"Ġcommons":4900,"Ġcommission":4901,"Ġstanding":4902,"Ġclim":4903,"ĠDe":4904,"ĠDorset":4905,"ĠDerby":4906,"ullus":4907,"Ġwrink":4908,"Ġbearing":4909,"aints":4910,"Ġrare":4911,"thee":4912,"ĠFroth":4913,"Ġappeal":4914,"Ġappetite":4915,"Ġcontempt":4916,"Ġwhisper":4917,"Ġimage":4918,"ĠMarian":4919,"forced":4920,"Ġrust":4921,"Ġruled":4922,"Ġhousehold":4923,"Ġrestra":4924,"ercy":4925,"Ġsets":4926,"clam":4927,"osing":4928,"Ġresist":4929,"Ġtrick":4930,"Ġputs":4931,"Ġpowerful":4932,"Ġchase":4933,"Ġcharac":4934,"Ġsmell":4935,"Ġtreasure":4936,"Ġbrace":4937,"iety":4938,"Ġmistrust":4939,"Ġnative":4940,"Ġboys":4941,"Ġweeps":4942,"Ġpatricians":4943,"Ġbelow":4944,"Lords":4945,"Ġfalsehood":4946,"Ġsovereignty":4947,"ouchs":4948,"Ġassure":4949,"Ġsecure":4950,"Twere":4951,"Ġsometimes":4952,"Ġoaths":4953,"Ġmerit":4954,"upon":4955,"Ġfaithful":4956,"Ġdefence":4957,"Ġaffli":4958,"Ġsurely":4959,"should":4960,"Ġsilent":4961,"Ġinstruments":4962,"Cannot":4963,"Ġbeholding":4964,"Ġreconci":4965,"Ġago":4966,"Ġagree":4967,"Ġcorre":4968,"Ġsingle":4969,"Ġbreathed":4970,"Ġforgive":4971,"Ġweakness":4972,"Ġprett":4973,"Ġsickness":4974,"Ġregal":4975,"Ġregard":4976,"Ġmouths":4977,"Ġbooks":4978,"Ġbarren":4979,"Ġbeasts":4980,"Ġtrumpet":4981,"eeming":4982,"Ġpitch":4983,"Ġshield":4984,"Ġunkind":4985,"Ġtempest":4986,"Ġsuspect":4987,"Ġobedient":4988,"Ġreverence":4989,"Ġapparent":4990,"Ġentertainment":4991,"ĠAnti":4992,"Ġdetermined":4993,"Ġhelm":4994,"Ġgently":4995,"Ġholp":4996,"Ġfairest":4997,"Ġtremble":4998,"shire":4999,"Ġstabb":5000,"Ġtyranny":5001,"Ġlength":5002,"Ġpilgrim":5003,"ĠSicilia":5004,"Ġequal":5005,"Ġfashion":5006,"Ġdignity":5007,"Ġcomplex":5008,"Ġcircumst":5009,"yrrel":5010,"Ġaccording":5011,"Ġimpossible":5012,"Ġrejo":5013,"ĠRosaline":5014,"ĠMayor":5015,"ĠMilan":5016,"Volsce":5017,"ienna":5018,"Ġfroward":5019,"Ġmelancholy":5020,"Ġconference":5021,".--":5022,"AD":5023,"Cry":5024,"Cond":5025,"CLE":5026,"Down":5027,"Draw":5028,"Each":5029,"Fl":5030,"FRO":5031,"Fair":5032,"Hail":5033,"IL":5034,"IT":5035,"Im":5036,"Kn":5037,"King":5038,"Lay":5039,"Lie":5040,"Lady":5041,"Many":5042,"OMEN":5043,"PH":5044,"Qu":5045,"Ri":5046,"Sm":5047,"Son":5048,"Somet":5049,"Tush":5050,"UGH":5051,"Warwick":5052,"Ye":5053,"acc":5054,"action":5055,"bod":5056,"bation":5057,"cra":5058,"cary":5059,"cceed":5060,"eb":5061,"eve":5062,"fa":5063,"fold":5064,"foot":5065,"give":5066,"iver":5067,"iam":5068,"kind":5069,"long":5070,"look":5071,"mong":5072,"ns":5073,"nes":5074,"new":5075,"rs":5076,"rat":5077,"rough":5078,"say":5079,"sues":5080,"than":5081,"tic":5082,"teen":5083,"tles":5084,"uries":5085,"war":5086,"weal":5087,"xe":5088,"Ġtim":5089,"Ġtres":5090,"Ġtall":5091,"Ġtakes":5092,"Ġtarry":5093,"Ġtaunt":5094,"here":5095,"Ġaxe":5096,"oubt":5097,"Ġsalt":5098,"Ġsnow":5099,"Ġmir":5100,"Ġmood":5101,"Ġmess":5102,"Ġmirth":5103,"inct":5104,"Ġwid":5105,"Ġwest":5106,"Ġwake":5107,"Ġwink":5108,"hand":5109,"Ġbir":5110,"Ġbuck":5111,"ories":5112,"ering":5113,"erves":5114,"iter":5115,"itable":5116,"onation":5117,"Ġdiffe":5118,"Ġcost":5119,"Ġchall":5120,"Ġciv":5121,"Ġnap":5122,"Ġlent":5123,"Ġline":5124,"Ġlap":5125,"Ġyes":5126,"Ġthir":5127,"Ġthick":5128,"Ġthread":5129,"Ġhorn":5130,"Ġoak":5131,"Ġope":5132,"Ġtoad":5133,"Ġtoil":5134,"Ġtooth":5135,"Ġpee":5136,"Ġpause":5137,"ĠIta":5138,"othes":5139,"stable":5140,"stery":5141,"aning":5142,"omach":5143,"Ġgru":5144,"Ġgaze":5145,"Ġmystery":5146,"Ġinfection":5147,"Ġmemory":5148,"imble":5149,"illy":5150,"illing":5151,"herit":5152,"Ġste":5153,"Ġstick":5154,"Ġstumble":5155,"asp":5156,"ases":5157,"Ġrece":5158,"Ġreap":5159,"Ġredeem":5160,"Ġlift":5161,"Ġliken":5162,"alse":5163,"Ġdeb":5164,"Ġdeck":5165,"Ġdecl":5166,"Ġsham":5167,"ushy":5168,"ushes":5169,"Ġsell":5170,"Ġseiz":5171,"Ġseldom":5172,"Ġsepul":5173,"Through":5174,"Ġsuper":5175,"Ġsuitor":5176,"Ġsucceed":5177,"thing":5178,"Ġlover":5179,"Ġlovest":5180,"Ġspl":5181,"Ġspy":5182,"Ġfact":5183,"Ġfawn":5184,"Ġnegle":5185,"Ġknot":5186,"Ġvar":5187,"Ġvill":5188,"Ġvol":5189,"Ġshri":5190,"ulf":5191,"seless":5192,"artius":5193,"Ġmanif":5194,"Ġmanage":5195,"ĠMin":5196,"ical":5197,"icles":5198,"ĠLau":5199,"ĠLartius":5200,"Ġhated":5201,"LOUGH":5202,"ersu":5203,"Ġswain":5204,"Ġbran":5205,"pping":5206,"ĠSalisbury":5207,"Ġunwill":5208,"ĠHis":5209,"ĠHeaven":5210,"ĠVen":5211,"ĠVienna":5212,"Whether":5213,"Ġjot":5214,"cies":5215,"Ġshoulder":5216,"ĠPerd":5217,"ĠWIL":5218,"Ġdeaths":5219,"Ġheartily":5220,"Ġwholesome":5221,"Ġmarks":5222,"Ġoffic":5223,"Ġdisple":5224,"Ġdisgu":5225,"Ġabused":5226,"Ġexerc":5227,"Ġdescent":5228,"Ġripe":5229,"Ġride":5230,"ased":5231,"Ġleague":5232,"Ġslip":5233,"Ġwarri":5234,"ĠTar":5235,"ĠTell":5236,"ĠTyrrel":5237,"Ġbred":5238,"Ġheavenly":5239,"Ġclothes":5240,"Ġsweeter":5241,"Ġperhaps":5242,"Ġscold":5243,"Ġscandal":5244,"Ġrain":5245,"Ġrail":5246,"Ġraised":5247,"Ġappointed":5248,"Ġwhit":5249,"Ġremorse":5250,"Ġremove":5251,"Ġremoved":5252,"ĠLords":5253,"Ġbegan":5254,"Ġrepose":5255,"Ġharsh":5256,"Ġkeeper":5257,"Ġaccident":5258,"Ġaccursed":5259,"Ġyounger":5260,"Ġyoungest":5261,"Ġprick":5262,"Ġdearly":5263,"Ġsubtle":5264,"RIAN":5265,"Ġrights":5266,"fortune":5267,"Ġminds":5268,"Ġcoff":5269,"Ġdevotion":5270,"Ġmischance":5271,"Ġmeeting":5272,"Ġafternoon":5273,"Ġcareless":5274,"Uncle":5275,"Ġgriefs":5276,"Anon":5277,"Ġhuman":5278,"Ġcounc":5279,"Ġgrat":5280,"Ġretire":5281,"Ġserved":5282,"Ġadventure":5283,"Ġcurt":5284,"Ġcountrymen":5285,"Ġvirtues":5286,"Ġwindows":5287,"itten":5288,"Ġcraves":5289,"Ġcraft":5290,"Ġbeauteous":5291,"Ġstranger":5292,"Ġyielded":5293,"Ġsupply":5294,"Ġcommonweal":5295,"Ġmonstrous":5296,"Ġmonument":5297,"Didst":5298,"soever":5299,"Ġgrowing":5300,"Ġheirs":5301,"Ġvisage":5302,"Ġpoints":5303,"Ġstronger":5304,"Ġtrusty":5305,"Ġinstruction":5306,"Ġinfant":5307,"Ġforeign":5308,"Ġincen":5309,"Ġfeeling":5310,"Ġburst":5311,"Ġplainly":5312,"Ġabsolute":5313,"Ġfourteen":5314,"Ġselfsame":5315,"Ġfrowns":5316,"Ġdirection":5317,"Ġredress":5318,"Ġsatisfy":5319,"Ġservants":5320,"ollow":5321,"Ġblem":5322,"Ġbridegroom":5323,"Ġbabes":5324,"Ġgallant":5325,"Ġrebellion":5326,"Ġwriting":5327,"Ġfierce":5328,"Ġshadows":5329,"Ġpleasing":5330,"Ġmodest":5331,"Ġmodesty":5332,"Ġobject":5333,"Ġforswear":5334,"Ġuncles":5335,"Ġrefuse":5336,"Among":5337,"banished":5338,"Ġbigger":5339,"Ġfeather":5340,"Ġdetermine":5341,"Betw":5342,"Better":5343,"Ġchaste":5344,"otted":5345,"Ġfairer":5346,"Ġshrewd":5347,"Ġdismal":5348,"Ġtrembling":5349,"Ġacquaint":5350,"Ġprophet":5351,"Ġedge":5352,"Ġeagle":5353,"Ġshroud":5354,"Ġsubstit":5355,"othecary":5356,"Ġsteeds":5357,"Ġiron":5358,"Ġtorture":5359,"Ġrenowned":5360,"Ġdearest":5361,"Return":5362,"Remember":5363,"Ġwondrous":5364,"Ġballad":5365,"Ġpenitent":5366,"Ġpolicy":5367,"Ġrepeal":5368,"Ġadversaries":5369,"Ġpurchase":5370,"Commend":5371,"Ġprivilege":5372,"Ġrevolt":5373,"Ġsullen":5374,"Ġconceal":5375,"ĠConspirator":5376,"Coriolanus":5377,"Ġdowry":5378,"Ġpierce":5379,"Ġstrokes":5380,"Ġflatterer":5381,"ĠMariana":5382,"ouchsafe":5383,"ADRIAN":5384,"CLEOMEN":5385,"FROTH":5386,"Ġtrespass":5387,"Ġcivil":5388,"Ġthirty":5389,"ĠItaly":5390,"Ġsepulch":5391,"LOUGHBY":5392,"ĠPerdita":5393,"ĠWILLOUGHBY":5394,"Ġexercise":5395,"CLEOMENES":5396,"AM":5397,"Aw":5398,"BAR":5399,"Courage":5400,"Dare":5401,"Find":5402,"Get":5403,"Men":5404,"Mist":5405,"Making":5406,"Methought":5407,"NARD":5408,"Oh":5409,"Pur":5410,"Petruchio":5411,"Que":5412,"Rather":5413,"RUT":5414,"Se":5415,"Sound":5416,"Tranio":5417,"UR":5418,"Villain":5419,"Wit":5420,"ax":5421,"br":5422,"bble":5423,"boy":5424,"car":5425,"cest":5426,"cue":5427,"cence":5428,"done":5429,"ders":5430,"duke":5431,"ext":5432,"from":5433,"gy":5434,"got":5435,"ghan":5436,"great":5437,"gentle":5438,"iar":5439,"ips":5440,"mas":5441,"made":5442,"nken":5443,"nicious":5444,"oon":5445,"oes":5446,"off":5447,"phy":5448,"pret":5449,"pardon":5450,"rity":5451,"ratch":5452,"sire":5453,"scal":5454,"tend":5455,"ug":5456,"vive":5457,"vied":5458,"ĠAs":5459,"Ġtou":5460,"Ġtro":5461,"Ġtig":5462,"Ġtail":5463,"Ġale":5464,"Ġages":5465,"Ġsn":5466,"Ġmain":5467,"Ġmil":5468,"Ġmethought":5469,"inate":5470,"Ġward":5471,"Ġwakes":5472,"Ġbon":5473,"Ġbore":5474,"Ġbag":5475,"Ġbrown":5476,"Ġborrow":5477,"Ġbott":5478,"ision":5479,"orough":5480,"Ġfish":5481,"Ġfret":5482,"Ġfix":5483,"Ġfreed":5484,"ital":5485,"itiff":5486,"onest":5487,"Ġdate":5488,"Ġdower":5489,"Ġcrow":5490,"esu":5491,"enge":5492,"Ġnet":5493,"Ġnest":5494,"Ġnice":5495,"Ġnumb":5496,"Ġnupt":5497,"Ġlur":5498,"Ġlance":5499,"Ġlower":5500,"Ġluck":5501,"Ġyon":5502,"Ġthin":5503,"Ġthie":5504,"Ġthirst":5505,"Ġthumb":5506,"Ġhom":5507,"Ġhind":5508,"Ġhig":5509,"Ġhire":5510,"Ġhoney":5511,"Ġtoy":5512,"Ġtomorrow":5513,"Ġped":5514,"Ġpear":5515,"Ġpath":5516,"Ġpage":5517,"hath":5518,"ĠIt":5519,"Ġheat":5520,"Ġheels":5521,"owl":5522,"ingers":5523,"Ġgid":5524,"atri":5525,"atest":5526,"Ġbere":5527,"Ġbefall":5528,"sey":5529,"Ġink":5530,"cels":5531,"Ġhare":5532,"Ġhaught":5533,"Ġhabit":5534,"ayed":5535,"Ġnoted":5536,"chief":5537,"keley":5538,"Ġweal":5539,"Ġwealth":5540,"oops":5541,"hern":5542,"Ġwithdraw":5543,"rif":5544,"rich":5545,"rible":5546,"Ġstale":5547,"Ġstern":5548,"Ġstomach":5549,"order":5550,"INE":5551,"rage":5552,"Ġlivery":5553,"Ġliking":5554,"urg":5555,"urrey":5556,"Ġdeaf":5557,"Ġshare":5558,"Ġshapes":5559,"Ġdove":5560,"Ġdogs":5561,"Ġdozen":5562,"Ġwills":5563,"ushing":5564,"Ġsuits":5565,"Ġhers":5566,"Ġanointed":5567,"ardel":5568,"Ġspit":5569,"Ġspect":5570,"Ġshallow":5571,"ĠCounty":5572,"Ġneat":5573,"Ġvent":5574,"Ġshook":5575,"Ġshines":5576,"Ġupright":5577,"Ġgoods":5578,"Ġprime":5579,"Ġamiss":5580,"icate":5581,"icio":5582,"Ġconceive":5583,"iege":5584,"Ġblast":5585,"ĠGree":5586,"emper":5587,"Ġgodd":5588,"aughan":5589,"Ġsirs":5590,"ola":5591,"olved":5592,"ĠLicio":5593,"Ġthereby":5594,"ept":5595,"eping":5596,"Ġswore":5597,"Ġsweat":5598,"Ġorn":5599,"ĠSc":5600,"ĠSp":5601,"ĠSee":5602,"ĠShore":5603,"ĠOff":5604,"ĠBr":5605,"ĠBy":5606,"Ġarrest":5607,"Ġlets":5608,"Ġunst":5609,"Ġunse":5610,"Ġunfe":5611,"Ġworm":5612,"ĠVal":5613,"aker":5614,"Ġhop":5615,"Ġlikely":5616,"Ġproclam":5617,"ĠPlease":5618,"ĠPETER":5619,"Ġsav":5620,"Ġmadness":5621,"umbling":5622,"Ġplaces":5623,"iced":5624,"ĠWilt":5625,"Ġeng":5626,"unate":5627,"Ġrans":5628,"Ġtrunk":5629,"Ġsomewhat":5630,"harged":5631,"orney":5632,"Ġoffices":5633,"Ġdisgra":5634,"Ġalms":5635,"Ġabuse":5636,"Ġexam":5637,"Ġtelling":5638,"Ġlooked":5639,"Ġthinking":5640,"Ġwhereon":5641,"agues":5642,"Whereto":5643,"Ġflow":5644,"Ġflint":5645,"Ġflourish":5646,"Ġfearing":5647,"bert":5648,"Ġbreed":5649,"Ġgreatness":5650,"Ġparted":5651,"Ġpernicious":5652,"Ġtroop":5653,"Ġtroops":5654,"lied":5655,"Ġscatter":5656,"ainty":5657,"ables":5658,"ĠFare":5659,"Ġappea":5660,"Ġgraced":5661,"Ġbegu":5662,"Ġbeget":5663,"rank":5664,"Ġchildish":5665,"Ġreply":5666,"Ġconsort":5667,"loves":5668,"ercing":5669,"cheth":5670,"Ġtrif":5671,"ontes":5672,"Ġprice":5673,"Ġsubd":5674,"Ġbacks":5675,"twill":5676,"Ġforthwith":5677,"Ġbank":5678,"Ġcheap":5679,"Ġcharm":5680,"Ġlaws":5681,"Ġconfirm":5682,"Ġcoll":5683,"Ġlightning":5684,"Does":5685,"Ġroyalty":5686,"ĠAnne":5687,"Ġbesides":5688,"Ġhappily":5689,"Ġsorrows":5690,"Ġcareful":5691,"Ġlesser":5692,"Ġstrive":5693,"Ġsleeping":5694,"Ġdrag":5695,"Ġserp":5696,"Ġboast":5697,"pense":5698,"Ġwanting":5699,"Ġbreathing":5700,"Ġdiscourse":5701,"Ġsenseless":5702,"Ġbeaut":5703,"Ġhangs":5704,"Ġdepend":5705,"hamed":5706,"Ġgrew":5707,"Ġspoil":5708,"Ġdrunken":5709,"Ġaffords":5710,"Ġmetal":5711,"Ġsooner":5712,"IDAM":5713,"Ġsights":5714,"Ġmonster":5715,"Ġmonarch":5716,"acles":5717,"Ġsadness":5718,"Ġsuffic":5719,"Ġcarried":5720,"Ġexecute":5721,"Ġexecuted":5722,"Ġminute":5723,"Ġvel":5724,"Ġcoronation":5725,"Ġpraises":5726,"Ġwaves":5727,"Ġburnt":5728,"Ġliberal":5729,"Ġburns":5730,"Ġburning":5731,"Ġproport":5732,"Ġblessing":5733,"Ġbleeding":5734,"Ġestim":5735,"Ġbitterly":5736,"mbles":5737,"speak":5738,"Ġlimit":5739,"Ġlimbs":5740,"Ġsacrif":5741,"Ġsuccession":5742,"Ġactions":5743,"Ġcaps":5744,"Ġviolence":5745,"Ġtriumphant":5746,"Ġmidnight":5747,"Ġrebels":5748,"Ġpossession":5749,"Play":5750,"Ġtorch":5751,"Ġcaitiff":5752,"Ġpitiful":5753,"Ġinjury":5754,"Ġurge":5755,"Ġexecutioner":5756,"March":5757,"Marcius":5758,"Ġmeddle":5759,"Ġoccup":5760,"Ġnobility":5761,"Ġchurchyard":5762,"Ġignorance":5763,"Ġsaints":5764,"headed":5765,"ĠCaesar":5766,"Ġrank":5767,"Ġguests":5768,"ĠWilliam":5769,"Ġhungry":5770,"Ġunfold":5771,"Ġmonths":5772,"Ġextremity":5773,"Ġinclined":5774,"Ġcovert":5775,"Ġjoints":5776,"Ġprevented":5777,"Ġtyrann":5778,"Ġlengthen":5779,"Ġwager":5780,"Ġnecessity":5781,"Ġsubstance":5782,"Ġescape":5783,"Ġsenses":5784,"Ġstatue":5785,"Ġconjure":5786,"Ġbands":5787,"Ġweapon":5788,"Ġsteps":5789,"Ġangel":5790,"Ġtransport":5791,"Ġthreatening":5792,"Ġwolf":5793,"Ġcensure":5794,"ribunes":5795,"ARCHIDAM":5796,"ĠDido":5797,"ĠElbow":5798,"Ġapprehend":5799,"Ġimmortal":5800,"Ġtapster":5801,"Ġmoral":5802,"ĠBerkeley":5803,"Ġjewel":5804,"Ġruthless":5805,"Ġdispersed":5806,"Ġclamour":5807,"Ġrapier":5808,"Ġcompanion":5809,"Strike":5810,"Ġopposite":5811,"Ġzeal":5812,"Ġcherish":5813,"Ġstretch":5814,"ambio":5815,"Ġspleen":5816,"Ġcharacter":5817,"Ġprettiest":5818,"Ġrejoice":5819,"Ġbirds":5820,"Ġchallenge":5821,"Ġpeevish":5822,"Ġlikeness":5823,"ĠLaurence":5824,"Ġofficers":5825,"Ġwarriors":5826,"Ġcommonwealth":5827,"Ġsepulchre":5828,"BARNARD":5829,"Queen":5830,"RUTLAND":5831,"scalus":5832,"Ġbottom":5833,"Ġnuptial":5834,"Ġgiddy":5835,"ĠOfficer":5836,"ĠWiltshire":5837,"ARCHIDAMUS":5838,"BARNARDINE":5839,"ATER":5840,"Add":5841,"Bre":5842,"Bra":5843,"BAN":5844,"CRO":5845,"Content":5846,"Ever":5847,"Eng":5848,"Else":5849,"EPH":5850,"Full":5851,"False":5852,"Follow":5853,"GO":5854,"Ga":5855,"Gard":5856,"Gentleman":5857,"Hic":5858,"Henry":5859,"Hortensio":5860,"Lu":5861,"Live":5862,"Mis":5863,"MOR":5864,"Much":5865,"Name":5866,"Old":5867,"Patience":5868,"Persu":5869,"Saw":5870,"Six":5871,"SIR":5872,"TON":5873,"Toward":5874,"TMOR":5875,"Virt":5876,"Wr":5877,"WES":5878,"Woe":5879,"Women":5880,"WATER":5881,"Yield":5882,"ZWATER":5883,"ald":5884,"aven":5885,"back":5886,"cor":5887,"cus":5888,"call":5889,"cap":5890,"cont":5891,"cons":5892,"ded":5893,"dal":5894,"fri":5895,"gged":5896,"horse":5897,"iban":5898,"light":5899,"may":5900,"nant":5901,"pray":5902,"ront":5903,"sen":5904,"vided":5905,"wd":5906,"wing":5907,"water":5908,"zed":5909,"Ġice":5910,"Ġought":5911,"ĠThy":5912,"Ġeter":5913,"ĠQueen":5914,"Ġtard":5915,"Ġtack":5916,"Ġtree":5917,"Ġtied":5918,"Ġtired":5919,"Ġtakest":5920,"Ġah":5921,"Ġaud":5922,"Ġaged":5923,"oured":5924,"Ġsed":5925,"Ġsess":5926,"Ġsau":5927,"Ġsings":5928,"Ġsought":5929,"Ġsides":5930,"Ġsurp":5931,"Ġsilly":5932,"Ġmat":5933,"Ġmour":5934,"Ġmould":5935,"iners":5936,"Ġwet":5937,"Ġwave":5938,"Ġwaked":5939,"reet":5940,"reant":5941,"habit":5942,"Ġbay":5943,"Ġbill":5944,"Ġbent":5945,"Ġbru":5946,"Ġbol":5947,"Ġbalm":5948,"ishes":5949,"isement":5950,"orth":5951,"oriz":5952,"Ġfin":5953,"Ġfant":5954,"Ġfray":5955,"Ġfever":5956,"Ġfelt":5957,"Ġfardel":5958,"erily":5959,"itch":5960,"oned":5961,"onus":5962,"onstant":5963,"Ġcat":5964,"Ġcent":5965,"Ġcook":5966,"envol":5967,"Ġnar":5968,"Ġlour":5969,"Ġlun":5970,"arm":5971,"Ġomit":5972,"Ġtops":5973,"Ġpor":5974,"Ġpill":5975,"Ġpent":5976,"Ġphi":5977,"Ġpick":5978,"Ġpace":5979,"Ġpaint":5980,"Ġpaid":5981,"Ġpush":5982,"Ġpalm":5983,"Ġpomp":5984,"ĠIn":5985,"Ġhera":5986,"Ġheight":5987,"omes":5988,"Ġgn":5989,"Ġgap":5990,"Ġgains":5991,"Ġgoose":5992,"athe":5993,"athed":5994,"Ġbeams":5995,"sec":5996,"seem":5997,"Ġinv":5998,"Ġhail":5999,"iring":6000,"ednes":6001,"uts":6002,"utch":6003,"Ġmew":6004,"Ġmemb":6005,"Ġissu":6006,"Ġforty":6007,"Ġweek":6008,"ently":6009,"riel":6010,"Ġstead":6011,"Ġhist":6012,"Ġrend":6013,"Ġrear":6014,"Ġreach":6015,"Ġrevel":6016,"raid":6017,"Ġlions":6018,"Ġlikes":6019,"Ġlivest":6020,"urgh":6021,"urtis":6022,"alter":6023,"Ġsoil":6024,"Ġsoci":6025,"Ġaspect":6026,"Ġashamed":6027,"Ġdem":6028,"Ġdepose":6029,"rog":6030,"ARLIS":6031,"hire":6032,"verty":6033,"Ġbutt":6034,"Ġsevere":6035,"Ġseated":6036,"Thine":6037,"Things":6038,"Ġalleg":6039,"Ġherd":6040,"three":6041,"Ġanch":6042,"tering":6043,"Ġload":6044,"Ġlock":6045,"Ġlovers":6046,"ellows":6047,"Ġspread":6048,"Ġourself":6049,"Ġfavours":6050,"ilful":6051,"iliar":6052,"ĠCurtis":6053,"ĠCARLIS":6054,"ĠRatcliff":6055,"ĠRaven":6056,"Ġvast":6057,"ORGE":6058,"Ġshru":6059,"Ġshrift":6060,"arted":6061,"ĠMistress":6062,"ĠEm":6063,"ĠEly":6064,"ĠELY":6065,"ĠEscalus":6066,"Ġamain":6067,"Ġamends":6068,"Ġambit":6069,"Ġamorous":6070,"Ġconsequ":6071,"iece":6072,"ĠGreen":6073,"Ġshel":6074,"Ġgoss":6075,"arers":6076,"olks":6077,"ĠLook":6078,"Ġknowing":6079,"resh":6080,"Ġswears":6081,"Ġbrat":6082,"ĠShall":6083,"ĠSurrey":6084,"ĠSCRO":6085,"ĠOur":6086,"ĠBushy":6087,"ĠBurg":6088,"Ġarray":6089,"Ġune":6090,"Ġunm":6091,"Ġunre":6092,"igent":6093,"igonus":6094,"ĠHim":6095,"ĠHark":6096,"ĠHuntsman":6097,"ĠVaughan":6098,"elsh":6099,"eliver":6100,"LIBAN":6101,"Ġgrain":6102,"Ġhoar":6103,"Ġlikewise":6104,"Ġproved":6105,"Ġprocess":6106,"Ġprodig":6107,"umed":6108,"ĠWas":6109,"ĠWould":6110,"ĠWelsh":6111,"isting":6112,"Ġenc":6113,"uns":6114,"Ġrate":6115,"Ġrouse":6116,"Ġpoverty":6117,"Ġspeaking":6118,"Ġoutrage":6119,"ELAND":6120,"ickle":6121,"CALIBAN":6122,"Withdraw":6123,"igned":6124,"Ġmars":6125,"Ġmarvel":6126,"Ġmarvell":6127,"Ġdisin":6128,"Ġdisease":6129,"Ġabund":6130,"Ġrobb":6131,"Ġexcept":6132,"agot":6133,"aged":6134,"Ġdesc":6135,"Ġriches":6136,"Whereof":6137,"Ġslight":6138,"Ġslipp":6139,"Ġflat":6140,"Ġbetide":6141,"Ġbread":6142,"Behold":6143,"Ġcouple":6144,"Ġparties":6145,"Ġpartner":6146,"idered":6147,"Ġclock":6148,"Ġprefer":6149,"Ġsweetly":6150,"ĠDian":6151,"ulls":6152,"Ġwritten":6153,"Ġscratch":6154,"Ġpresume":6155,"Ġpreserve":6156,"Ġnights":6157,"Ġworldly":6158,"perience":6159,"Ġrack":6160,"Ġraven":6161,"them":6162,"ably":6163,"ĠFIT":6164,"Ġdownright":6165,"Ġcontro":6166,"BAGO":6167,"ranch":6168,"Ġimper":6169,"Ġreputation":6170,"Ġafraid":6171,"Ġmightst":6172,"Ġstays":6173,"Ġrue":6174,"Ġleg":6175,"Ġlect":6176,"Ġlewd":6177,"loso":6178,"Ġrestore":6179,"Ġentrance":6180,"Ġtricks":6181,"Ġmoves":6182,"Ġbestow":6183,"Ġaccom":6184,"Ġended":6185,"Ġpurge":6186,"Ġpurple":6187,"Ġputting":6188,"Prove":6189,"Proceed":6190,"Proclaim":6191,"Ġsmil":6192,"Ġsmother":6193,"Ġtrain":6194,"Ġtravell":6195,"Ġbidding":6196,"Ġdrew":6197,"Ġearthly":6198,"Ġcouldst":6199,"Ġtren":6200,"Ġhopeful":6201,"GEORGE":6202,"Ġbrains":6203,"Ġcheque":6204,"Ġbridal":6205,"Ġconfound":6206,"being":6207,"Ġcop":6208,"Ġcoat":6209,"Ġmisfortune":6210,"Ġlanded":6211,"blood":6212,"Ġfalcon":6213,"Ġfalls":6214,"Ġbusy":6215,"Another":6216,"Ġstrict":6217,"Ġcounsell":6218,"Ġcourtier":6219,"Ġcourteous":6220,"Ġbuzz":6221,"Ġattain":6222,"Ġattorney":6223,"erest":6224,"Ġsounds":6225,"Ġsounded":6226,"Ġretired":6227,"Ġadvised":6228,"Ġrevenges":6229,"Ġstraw":6230,"Although":6231,"Ġprompt":6232,"Ġcram":6233,"Ġcontents":6234,"Ġvillains":6235,"Ġinteg":6236,"Ġkisses":6237,"aptain":6238,"Ġyields":6239,"upid":6240,"Ġwinters":6241,"Ġlambs":6242,"Ġbeats":6243,"Ġbeaten":6244,"acy":6245,"undy":6246,"unday":6247,"ventry":6248,"Ġchosen":6249,"Hadst":6250,"Ġentreaties":6251,"Ġdevilish":6252,"Ġboldly":6253,"Ġwooing":6254,"Ġinfer":6255,"Becomes":6256,"guard":6257,"Ġreadiness":6258,"Ġprofane":6259,"Ġdivor":6260,"Ġyouthful":6261,"Comes":6262,"Comfort":6263,"Ġterm":6264,"Ġsuitors":6265,"Ġstops":6266,"Ġcloudy":6267,"Ġmusicians":6268,"Ġdroop":6269,"Ġwax":6270,"Ġgrieves":6271,"Ġgrieved":6272,"chers":6273,"Ġskill":6274,"Ġsignal":6275,"Ġsignify":6276,"Ġcheerly":6277,"Ġprophes":6278,"Ġextreme":6279,"Ġtroubl":6280,"Ġsatisfaction":6281,"Ġdarkness":6282,"Ġexped":6283,"Ġflattering":6284,"Ġembra":6285,"Ġesteem":6286,"Ġbowels":6287,"Ġfrail":6288,"Ġhurl":6289,"Ġtowns":6290,"Ġsuddenly":6291,"spurgh":6292,"Ġcowardly":6293,"Ġlamentable":6294,"Ġowes":6295,"Ġeaten":6296,"Ġkinsmen":6297,"Ġmiddle":6298,"Ġdestruction":6299,"Ġdeparture":6300,"Plantagenet":6301,"Whiles":6302,"Ġfondly":6303,"Ġusurping":6304,"Above":6305,"ossess":6306,"Ġmildness":6307,"Ġinsol":6308,"Ġgladly":6309,"mediate":6310,"Ġapace":6311,"Ġships":6312,"Ġshop":6313,"Ġshoes":6314,"Ġobsequ":6315,"Ġtreasons":6316,"Ġcondemned":6317,"Ġtroubled":6318,"Ġlists":6319,"Ġstorms":6320,"Ġtemples":6321,"Ġmutinous":6322,"Ġpetty":6323,"Ġconquest":6324,"Ġgrandam":6325,"Ġgrandsire":6326,"Ġeldest":6327,"ĠAntigonus":6328,"Disp":6329,"EXTON":6330,"Ġbastards":6331,"Ġhelps":6332,"Ġamongst":6333,"Ġprovide":6334,"Ġgreeting":6335,"Ġministers":6336,"Neither":6337,"where":6338,"Ġconclud":6339,"Ġconclude":6340,"Ġdismiss":6341,"Officer":6342,"Ġimagine":6343,"Ġacquainted":6344,"Ġgifts":6345,"Ġghostly":6346,"Ġbehavior":6347,"Ġeleven":6348,"Ġrobes":6349,"Ġdesigns":6350,"Ġtempted":6351,"Ġheavier":6352,"Perhaps":6353,"Ġerrand":6354,"Ġwandering":6355,"Ġdetest":6356,"Ġweapons":6357,"Ġvanity":6358,"Ġaccusation":6359,"Shalt":6360,"Ġfrost":6361,"Ġpersuade":6362,"Ġdiscontented":6363,"Appear":6364,"Ġtestim":6365,"Ġhazard":6366,"ĠCaliban":6367,"ĠBlunt":6368,"Ġkeys":6369,"Ġinstantly":6370,"iveness":6371,"Ġfigure":6372,"Ġfurnish":6373,"Ġparents":6374,"Ġrecompense":6375,"Ġnobleness":6376,"ĠCoventry":6377,"ĠSTEPH":6378,"Ġprovoked":6379,"Ġintelligence":6380,"Ġfiend":6381,"Ġceremon":6382,"advised":6383,"Ġreckon":6384,"ĠLeontes":6385,"Ġreconcile":6386,"Ġunkindness":6387,"Ġpilgrimage":6388,"Ġcomplexion":6389,"Ġseized":6390,"Ġneglect":6391,"Ġvarlet":6392,"ĠMinola":6393,"ĠVenice":6394,"Ġblemish":6395,"Ġfreedom":6396,"Ġthieves":6397,"Ġgoddess":6398,"Ġproclamation":6399,"Ġsavage":6400,"Ġransom":6401,"Ġexample":6402,"Ġvelvet":6403,"Ġproportion":6404,"Ġtyrannous":6405,"Gaoler":6406,"Gardener":6407,"Lucentio":6408,"Towards":6409,"TMORELAND":6410,"WESTMORELAND":6411,"envolio":6412,"Ġnarrow":6413,"Ġphiloso":6414,"Ġherald":6415,"ednesday":6416,"Ġmembers":6417,"Ġallegiance":6418,"ĠCARLISLE":6419,"ĠRavenspurgh":6420,"Ġambitious":6421,"ĠSCROOP":6422,"ĠBurgundy":6423,"ĠFITZWATER":6424,"BAGOT":6425,"Ġintegrity":6426,"ĠSTEPHEN":6427,"Ġphilosophy":6428,"Ac":6429,"Af":6430,"Bound":6431,"Ca":6432,"Cont":6433,"Camillo":6434,"Catesby":6435,"Dep":6436,"Div":6437,"Fore":6438,"Five":6439,"Fall":6440,"Foul":6441,"Fetch":6442,"Gra":6443,"Gives":6444,"Grace":6445,"Hie":6446,"Harry":6447,"Hang":6448,"Justice":6449,"Kind":6450,"Lies":6451,"Lead":6452,"Mur":6453,"Part":6454,"Peter":6455,"Rel":6456,"Sit":6457,"Send":6458,"Ten":6459,"Tra":6460,"Talk":6461,"Touch":6462,"Teach":6463,"Truly":6464,"Vouchsafe":6465,"Verily":6466,"Wert":6467,"Zounds":6468,"av":6469,"ape":6470,"aving":6471,"bes":6472,"bour":6473,"bell":6474,"board":6475,"cat":6476,"cock":6477,"down":6478,"ech":6479,"eves":6480,"gic":6481,"gues":6482,"hors":6483,"ipt":6484,"join":6485,"kest":6486,"know":6487,"lor":6488,"len":6489,"low":6490,"lain":6491,"last":6492,"lace":6493,"lock":6494,"liness":6495,"longs":6496,"met":6497,"miss":6498,"mistress":6499,"nib":6500,"ob":6501,"oble":6502,"open":6503,"post":6504,"pite":6505,"pular":6506,"pothecary":6507,"ris":6508,"rish":6509,"roof":6510,"sent":6511,"tin":6512,"ted":6513,"tell":6514,"tong":6515,"tied":6516,"trees":6517,"uge":6518,"uild":6519,"ually":6520,"vir":6521,"wh":6522,"wer":6523,"was":6524,"work":6525,"women":6526,"ycor":6527,"ĠFirst":6528,"Ġtrow":6529,"Ġtie":6530,"Ġtorn":6531,"Ġtaking":6532,"heard":6533,"Ġafe":6534,"Ġsow":6535,"Ġsand":6536,"Ġsong":6537,"Ġsixt":6538,"Ġmom":6539,"Ġmas":6540,"Ġmouse":6541,"Ġmates":6542,"Ġmurde":6543,"Ġmask":6544,"inu":6545,"inal":6546,"inies":6547,"inces":6548,"Ġwore":6549,"Ġwipe":6550,"had":6551,"hage":6552,"Ġbot":6553,"Ġbul":6554,"Ġbows":6555,"Ġbail":6556,"Ġbounty":6557,"Ġfre":6558,"Ġfan":6559,"Ġfif":6560,"Ġfil":6561,"Ġfrant":6562,"Ġfount":6563,"Ġfift":6564,"Ġfingers":6565,"Ġfrank":6566,"Ġfolks":6567,"onio":6568,"Ġdot":6569,"Ġdine":6570,"Ġdried":6571,"Ġdined":6572,"Ġdash":6573,"Ġdiest":6574,"Ġdrift":6575,"Ġcord":6576,"Ġcro":6577,"Ġcab":6578,"Ġcool":6579,"Ġcrows":6580,"Ġcords":6581,"ening":6582,"ened":6583,"enches":6584,"Ġnort":6585,"Ġnigh":6586,"Ġnamed":6587,"Ġnimble":6588,"Ġlute":6589,"Ġlads":6590,"Ġlying":6591,"Ġlinger":6592,"Ġthw":6593,"Ġthrown":6594,"Ġhill":6595,"Ġpow":6596,"Ġpour":6597,"Ġpest":6598,"Ġpant":6599,"Ġpup":6600,"Ġpict":6601,"Ġheel":6602,"Ġheinous":6603,"otland":6604,"Ġgust":6605,"Ġgather":6606,"Ġgaunt":6607,"Ġbeef":6608,"see":6609,"Ġinward":6610,"Ġhag":6611,"Ġhaunt":6612,"lect":6613,"aying":6614,"etition":6615,"Ġmeed":6616,"Ġmeal":6617,"iments":6618,"Ġnotice":6619,"Ġforso":6620,"Ġug":6621,"Ġwears":6622,"Ġeight":6623,"Ġeff":6624,"advent":6625,"ril":6626,"rial":6627,"Ġstink":6628,"Ġstag":6629,"Ġsteep":6630,"Ġstiff":6631,"Ġkites":6632,"iders":6633,"asant":6634,"Ġrein":6635,"Ġrevive":6636,"rament":6637,"Ġlick":6638,"Ġlief":6639,"urb":6640,"uring":6641,"alks":6642,"Ġashes":6643,"Ġassem":6644,"Ġdeer":6645,"Ġdece":6646,"Ġdeform":6647,"roach":6648,"Ġshade":6649,"Ġdole":6650,"amy":6651,"amity":6652,"aments":6653,"Ġnod":6654,"Ġnoon":6655,"ushi":6656,"anders":6657,"Ġsearch":6658,"Throw":6659,"Ġann":6660,"Ġancest":6661,"Ġlodge":6662,"Ġloathed":6663,"ella":6664,"Ġspark":6665,"Ġspider":6666,"Ġspurs":6667,"ĠCambio":6668,"ĠCupid":6669,"Ġvul":6670,"Ġvass":6671,"Ġvouch":6672,"Ġvial":6673,"Ġventure":6674,"ctor":6675,"ousins":6676,"Ġwhatsoever":6677,"Ġshot":6678,"Ġshown":6679,"ules":6680,"arthage":6681,"Ġprate":6682,"Ġprint":6683,"Ġprating":6684,"Ġmanhood":6685,"ĠEven":6686,"Ġamaz":6687,"icle":6688,"ication":6689,"ived":6690,"ively":6691,"Ġblot":6692,"Ġblue":6693,"Ġblown":6694,"Ġbliss":6695,"Ġblaze":6696,"Ġblushing":6697,"embroke":6698,"Ġtheme":6699,"ĠLove":6700,"Ġthereto":6701,"Ġcanop":6702,"eptune":6703,"Ġherein":6704,"Ġswoon":6705,"Ġbranch":6706,"Ġorator":6707,"ĠSly":6708,"ĠSunday":6709,"ĠSycor":6710,"ĠBagot":6711,"ĠBenvolio":6712,"Ġarise":6713,"Ġunlike":6714,"Ġunruly":6715,"Ġworms":6716,"Ġworser":6717,"ĠHave":6718,"Ġmustard":6719,"Ġgraces":6720,"Ġseeks":6721,"Ġlikeli":6722,"Ġshoulders":6723,"ĠPoor":6724,"Ġsack":6725,"Ġsaved":6726,"Ġplan":6727,"peian":6728,"ĠWest":6729,"ĠWednesday":6730,"Ġenforced":6731,"Ġenrich":6732,"unis":6733,"uned":6734,"fulness":6735,"Ġrhe":6736,"Ġranc":6737,"Ġrush":6738,"Ġroof":6739,"Ġrushes":6740,"Ġpock":6741,"Ġpopular":6742,"death":6743,"ption":6744,"Ġoffences":6745,"Ġdiso":6746,"Ġalar":6747,"Ġaloud":6748,"Ġalso":6749,"ABRA":6750,"Ġbrotherhood":6751,"Ġfox":6752,"Ġroses":6753,"Ġroaring":6754,"Ġexceed":6755,"Ġrig":6756,"Ġleap":6757,"Ġleaving":6758,"Ġslily":6759,"Ġflock":6760,"ĠTime":6761,"ĠTew":6762,"ĠTroy":6763,"ĠTullus":6764,"ĠTribunes":6765,"ffic":6766,"ĠKent":6767,"Ġcommends":6768,"Ġcler":6769,"Ġsweetest":6770,"Ġplebe":6771,"Ġperfection":6772,"Ġwring":6773,"awful":6774,"Ġtrim":6775,"Ġotherwise":6776,"Ġmeaner":6777,"lier":6778,"Ġscore":6779,"Ġnighting":6780,"Ġrace":6781,"Thank":6782,"these":6783,"ĠFourth":6784,"Ġdownfall":6785,"together":6786,"Ġappears":6787,"Ġcontri":6788,"GREY":6789,"Ġwhist":6790,"Northumberland":6791,"Ġmothers":6792,"Ġeverlast":6793,"ksbury":6794,"ĠJup":6795,"Ġrum":6796,"Ġpeer":6797,"Ġlevel":6798,"Ġharl":6799,"Ġharvest":6800,"Ġharbour":6801,"Ġrests":6802,"Ġsettled":6803,"attern":6804,"oses":6805,"Ġmoe":6806,"Ġmoving":6807,"Ġmoiety":6808,"Ġbestri":6809,"Ġhenceforth":6810,"Ġaccomp":6811,"Ġfaced":6812,"ulting":6813,"Ġendured":6814,"Ġpursue":6815,"Ġcompare":6816,"Ġcompound":6817,"Ġchamp":6818,"Ġdearth":6819,"twould":6820,"Ġtrees":6821,"Ġhomely":6822,"Ġbrand":6823,"isterous":6824,"Ġcharges":6825,"Ġchances":6826,"Ġchanging":6827,"Ġconfidence":6828,"Ġconfeder":6829,"Ġcoast":6830,"Ġcozen":6831,"Ġimpeach":6832,"Ġlights":6833,"Ġroyalties":6834,"Ġbeside":6835,"Ġfully":6836,"Ġdevour":6837,"Ġwronged":6838,"Ġmischief":6839,"Ġlasting":6840,"blance":6841,"Ġafterward":6842,"Ġthousands":6843,"Ġholding":6844,"Ġpatron":6845,"Ġfallen":6846,"Ġfalling":6847,"Ġstrife":6848,"ivant":6849,"Ġhumility":6850,"Ġbelong":6851,"Ġbelieved":6852,"Ġtalking":6853,"Ġgrim":6854,"Ġgrass":6855,"Ġdram":6856,"Ġserious":6857,"Ġboisterous":6858,"Ġadvoc":6859,"Ġmerchant":6860,"Ġrevenue":6861,"Ġdoubtful":6862,"Ġdancing":6863,"Ġpersons":6864,"Ġdischarge":6865,"Attend":6866,"Ġcommands":6867,"Ġwindow":6868,"ittany":6869,"Ġcrab":6870,"Ġhangman":6871,"Ġproudest":6872,"Twixt":6873,"Ġintents":6874,"Ġyielding":6875,"Ġbreaks":6876,"Ġmerri":6877,"Ġtemple":6878,"Ġrequire":6879,"Ġdefy":6880,"Ġlately":6881,"Ġtenderness":6882,"Ġsadly":6883,"Ġchose":6884,"Ġgrowth":6885,"Ġasking":6886,"Ġreported":6887,"shine":6888,"Ġwatery":6889,"ĠMontagues":6890,"Ġbattles":6891,"Ġcrying":6892,"Ġlearning":6893,"Ġlearned":6894,"Ġentreaty":6895,"Ġdevils":6896,"Ġmurders":6897,"Ġsilk":6898,"Ġboldness":6899,"Ġruns":6900,"Ġrevengeful":6901,"Happ":6902,"Happy":6903,"voc":6904,"Ġspeedy":6905,"Ġquarter":6906,"Ġconfessor":6907,"ĠNed":6908,"ĠNeptune":6909,"Ġforehead":6910,"Ġterr":6911,"Ġminutes":6912,"Ġrecreant":6913,"Ġdelicate":6914,"Ġdespised":6915,"Ġbosoms":6916,"Ġharmony":6917,"Ġguiltless":6918,"Ġattended":6919,"Ġmurderous":6920,"Ġveil":6921,"Ġdistra":6922,"Ġdistress":6923,"Ġacts":6924,"Ġwonderful":6925,"Ġsingular":6926,"Ġmusician":6927,"Ġclosed":6928,"Ġwaits":6929,"Ġburden":6930,"Ġsuffering":6931,"Ġbreasts":6932,"Ġwedded":6933,"Ġdukes":6934,"shearing":6935,"Ġwisely":6936,"Ġfeasts":6937,"eshrew":6938,"Ġgroom":6939,"Ġredempt":6940,"Ġbeggars":6941,"Read":6942,"Ready":6943,"Swear":6944,"ĠFortune":6945,"Ġcrim":6946,"Ġcrook":6947,"Ġcrush":6948,"standing":6949,"Ġinterrupt":6950,"Ġundo":6951,"Ġevils":6952,"Ġsumm":6953,"ĠVolscians":6954,"ĠVolscian":6955,"Ġvisitation":6956,"Ġbowl":6957,"Ġbaby":6958,"Ġframed":6959,"Ġsafely":6960,"Ġsafeguard":6961,"Ġknocks":6962,"Ġsacrament":6963,"Ġleaden":6964,"Ġlamentation":6965,"ĠIsabella":6966,"Ġignoble":6967,"Ġclean":6968,"Ġoppression":6969,"Ġapproved":6970,"Ġapprobation":6971,"Ġcomplaint":6972,"Ġdrinking":6973,"Ġsurfeit":6974,"Ġmidst":6975,"Ġmidwife":6976,"Ġdestiny":6977,"Ġsmallest":6978,"Confess":6979,"Ġeasily":6980,"Stands":6981,"Ġdamnable":6982,"Ġutmost":6983,"Ġmildly":6984,"Ġcauses":6985,"Ġpuiss":6986,"Ġpitied":6987,"Ġinjustice":6988,"Ġinsinu":6989,"Ġproceedings":6990,"Ġapart":6991,"Ġmedic":6992,"Ġmodel":6993,"Ġfamiliar":6994,"Ġreigns":6995,"Ġprosperity":6996,"Ġlenity":6997,"Ġlowly":6998,"angling":6999,"Ġbending":7000,"Ġslanderous":7001,"ĠCapulets":7002,"Ġmountain":7003,"Ġunpro":7004,"Ġunworthy":7005,"Ġprovided":7006,"Ġplants":7007,"Ġneighbours":7008,"Ġglasses":7009,"Ġextremes":7010,"when":7011,"Ġconclusion":7012,"Ġimagination":7013,"rateful":7014,"Ġunlook":7015,"Ġunluck":7016,"ĠAlban":7017,"govern":7018,"Ġavoided":7019,"Ġeager":7020,"Ġloathsome":7021,"Ġloyalty":7022,"Ġaims":7023,"Ġsensible":7024,"Ġcrept":7025,"Ġpilot":7026,"Ġstatutes":7027,"Ġchiefest":7028,"cannot":7029,"Ġcalamity":7030,"Ġpinch":7031,"Ġinfected":7032,"Ġstocks":7033,"Ġdearer":7034,"Ġangels":7035,"Ġlodged":7036,"Ġlodging":7037,"Ġpursuit":7038,"Ġconqueror":7039,"Prepare":7040,"Ġtutor":7041,"Ġfleet":7042,"Ġfrozen":7043,"ARCHBISHOP":7044,"Ġadvanced":7045,"Ġcorruption":7046,"Ġmagist":7047,"Ġconcerns":7048,"Ġcloak":7049,"Ġwhoreson":7050,"Ġcompassion":7051,"bric":7052,"Ġstolen":7053,"Ġsprings":7054,"Ġswelling":7055,"Ġabhorr":7056,"Ġadverse":7057,"Ġperjured":7058,"Suppose":7059,"Ġmultitude":7060,"Ġnails":7061,"Ġlinea":7062,"Ġpiercing":7063,"Ġinquire":7064,"Ġclimate":7065,"Ġwrinkled":7066,"Ġwhispering":7067,"Ġcorrection":7068,"ĠAntium":7069,"Ġcircumstance":7070,"Lieutenant":7071,"Sometime":7072,"craft":7073,"favour":7074,"Ġtaunts":7075,"Ġmoody":7076,"Ġsteward":7077,"Ġmanifest":7078,"Ġbranches":7079,"Ġunwilling":7080,"ĠTarpeian":7081,"Ġincensed":7082,"Ġsubstitute":7083,"Ġflatterers":7084,"Mistake":7085,"Ġtiger":7086,"Ġmilk":7087,"Ġnumbers":7088,"Ġhinder":7089,"Ġpearl":7090,"Ġbereft":7091,"Ġornaments":7092,"ĠBrittany":7093,"Ġunseen":7094,"Ġdisgraced":7095,"Ġtrifles":7096,"Ġserpent":7097,"Ġsufficient":7098,"Ġestimation":7099,"Ġoccupation":7100,"Break":7101,"Virtue":7102,"Ġeternal":7103,"Ġtardy":7104,"Ġsurpr":7105,"Ġfantast":7106,"Ġlunatic":7107,"Ġhistory":7108,"Ġconsequence":7109,"Ġmarshal":7110,"Ġmarvellous":7111,"Ġprophesy":7112,"Ġceremonious":7113,"Murder":7114,"Ġafeard":7115,"Ġsixteen":7116,"Ġmoment":7117,"Ġmurdered":7118,"Ġfrantic":7119,"Ġfifteen":7120,"Ġcabin":7121,"Ġnorthern":7122,"Ġforsooth":7123,"adventure":7124,"ĠSycorax":7125,"Ġlikelihood":7126,"ABRAHAM":7127,"ĠTewksbury":7128,"ĠJupiter":7129,"Ġadvocate":7130,"Ġredemption":7131,"Again":7132,"Aff":7133,"AGE":7134,"Aumerle":7135,"Apollo":7136,"Apothecary":7137,"Ban":7138,"BON":7139,"Bold":7140,"Bless":7141,"Cle":7142,"Cast":7143,"Cold":7144,"Carry":7145,"Cursed":7146,"Den":7147,"Dest":7148,"Def":7149,"DION":7150,"Direct":7151,"Er":7152,"End":7153,"Every":7154,"EMI":7155,"Fit":7156,"Fill":7157,"Fourth":7158,"Gain":7159,"Grand":7160,"Groom":7161,"Ho":7162,"Har":7163,"High":7164,"Huntsman":7165,"Imp":7166,"Just":7167,"Join":7168,"Keeper":7169,"Left":7170,"Music":7171,"NATH":7172,"Open":7173,"Obey":7174,"Pres":7175,"PAGE":7176,"Ren":7177,"Run":7178,"Ratcliff":7179,"Sus":7180,"Sic":7181,"Trust":7182,"Ur":7183,"Wife":7184,"Worse":7185,"ais":7186,"aches":7187,"avish":7188,"bon":7189,"bot":7190,"bat":7191,"bid":7192,"bur":7193,"best":7194,"bel":7195,"bles":7196,"bearer":7197,"co":7198,"cis":7199,"cour":7200,"cri":7201,"core":7202,"cast":7203,"count":7204,"cured":7205,"cals":7206,"dra":7207,"dist":7208,"daughter":7209,"door":7210,"duce":7211,"eks":7212,"fly":7213,"fend":7214,"found":7215,"franch":7216,"gea":7217,"gage":7218,"grown":7219,"gled":7220,"greed":7221,"hur":7222,"honour":7223,"iqu":7224,"ivers":7225,"jud":7226,"kn":7227,"kens":7228,"lm":7229,"lu":7230,"leness":7231,"mar":7232,"mal":7233,"make":7234,"mind":7235,"much":7236,"mission":7237,"nut":7238,"name":7239,"never":7240,"nothing":7241,"oa":7242,"og":7243,"overy":7244,"occ":7245,"ops":7246,"opher":7247,"ph":7248,"po":7249,"pre":7250,"por":7251,"put":7252,"phan":7253,"pers":7254,"pres":7255,"pire":7256,"ples":7257,"point":7258,"picious":7259,"sion":7260,"spe":7261,"sick":7262,"sign":7263,"such":7264,"side":7265,"somet":7266,"scape":7267,"ton":7268,"ule":7269,"uish":7270,"uced":7271,"ukes":7272,"vil":7273,"vance":7274,"wit":7275,"who":7276,"why":7277,"weet":7278,"were":7279,"witted":7280,"yp":7281,"yet":7282,"ĠU":7283,"Ġire":7284,"ĠNo":7285,"ĠThus":7286,"Ġton":7287,"Ġtur":7288,"Ġtea":7289,"Ġtink":7290,"Ġtreat":7291,"Ġtents":7292,"Ġtainted":7293,"Ġtailor":7294,"Ġtamed":7295,"Ġtumble":7296,"Ġack":7297,"Ġafore":7298,"Ġape":7299,"ouches":7300,"Ġsith":7301,"Ġsine":7302,"Ġsitting":7303,"Ġsiege":7304,"Ġmast":7305,"Ġmant":7306,"Ġmuff":7307,"Ġmiles":7308,"iner":7309,"Ġwester":7310,"Ġwilful":7311,"reth":7312,"report":7313,"has":7314,"haeth":7315,"Ġbought":7316,"Ġbishop":7317,"isc":7318,"isher":7319,"isome":7320,"oricles":7321,"Ġfet":7322,"Ġfem":7323,"Ġfits":7324,"Ġfulf":7325,"erous":7326,"lly":7327,"lling":7328,"itan":7329,"once":7330,"Ġder":7331,"Ġdom":7332,"Ġded":7333,"Ġdil":7334,"Ġdame":7335,"Ġdiet":7336,"Ġdrows":7337,"Ġdumb":7338,"Ġcand":7339,"Ġcave":7340,"Ġcuck":7341,"Ġcrest":7342,"Ġcrew":7343,"Ġcurious":7344,"Ġcushi":7345,"Ġcousins":7346,"Ġnon":7347,"Ġnaught":7348,"Ġnourish":7349,"Ġlink":7350,"Ġlace":7351,"Ġloose":7352,"Ġlung":7353,"Ġlends":7354,"Ġlatest":7355,"Ġyare":7356,"Ġyester":7357,"Ġthrees":7358,"arison":7359,"Ġhood":7360,"Ġom":7361,"Ġobt":7362,"Ġtoe":7363,"Ġtoken":7364,"Ġtoads":7365,"Ġtower":7366,"Ġpine":7367,"Ġpate":7368,"Ġpuff":7369,"Ġpedant":7370,"Ġpounds":7371,"Ġpattern":7372,"Ġheal":7373,"Ġheigh":7374,"stra":7375,"stone":7376,"strong":7377,"strel":7378,"owick":7379,"ank":7380,"omenes":7381,"Ġgam":7382,"Ġgame":7383,"Ġgaz":7384,"Ġgrum":7385,"Ġgeld":7386,"Ġgulf":7387,"Ġgloves":7388,"ato":7389,"atient":7390,"Ġbeet":7391,"Ġbeads":7392,"seth":7393,"Ġinve":7394,"Ġinch":7395,"Ġinvent":7396,"Ġinherit":7397,"cel":7398,"ceives":7399,"ceiving":7400,"Ġhaw":7401,"Ġhall":7402,"Ġhalt":7403,"ediment":7404,"Ġmellow":7405,"imo":7406,"ims":7407,"Ġnotes":7408,"Ġnotwith":7409,"chool":7410,"child":7411,"Ġforces":7412,"key":7413,"Ġweed":7414,"illed":7415,"Ġelo":7416,"Ġebb":7417,"herited":7418,"entious":7419,"ado":7420,"adem":7421,"adise":7422,"rion":7423,"riam":7424,"rief":7425,"rieve":7426,"Ġstu":7427,"Ġstem":7428,"Ġstark":7429,"Ġstaff":7430,"ghts":7431,"idd":7432,"iding":7433,"asy":7434,"asing":7435,"asures":7436,"Ġrent":7437,"Ġrender":7438,"Ġresem":7439,"raken":7440,"rails":7441,"Ġliar":7442,"Ġliqu":7443,"urvy":7444,"Ġsolic":7445,"Ġashore":7446,"Ġdeceive":7447,"Ġdefect":7448,"aining":7449,"verse":7450,"verdone":7451,"estiv":7452,"eap":7453,"earest":7454,"Ġdoct":7455,"Ġdoves":7456,"Ġdoors":7457,"Ġnoses":7458,"Ġbutter":7459,"using":7460,"usiness":7461,"ifth":7462,"Ġsear":7463,"Ġsequ":7464,"Ġallay":7465,"Ġallies":7466,"Ġsued":7467,"Ġsung":7468,"Ġsunder":7469,"Ġsugg":7470,"Ġsugar":7471,"Ġherbs":7472,"thw":7473,"throw":7474,"thrift":7475,"Ġansw":7476,"Ġantic":7477,"terate":7478,"Ġloins":7479,"Ġlocks":7480,"Ġspar":7481,"Ġsped":7482,"Ġspilt":7483,"Ġspices":7484,"Ġspiders":7485,"Ġfaction":7486,"ĠCle":7487,"ĠCaptain":7488,"ĠCarthage":7489,"Ġnegl":7490,"hoeb":7491,"Ġknit":7492,"ANIEL":7493,"ĠRo":7494,"Ġvi":7495,"Ġvine":7496,"Ġvig":7497,"cts":7498,"Ġshout":7499,"Ġshower":7500,"ulous":7501,"antime":7502,"quet":7503,"athom":7504,"Whate":7505,"ĠMadam":7506,"Ġwhet":7507,"Ġwheel":7508,"Ġamend":7509,"ending":7510,"icial":7511,"bled":7512,"iel":7513,"ivered":7514,"Ġblister":7515,"Ġblade":7516,"venient":7517,"ĠGentle":7518,"Forth":7519,"Forbear":7520,"Forgive":7521,"Forbid":7522,"olar":7523,"olve":7524,"olour":7525,"ĠLam":7526,"ĠLod":7527,"ĠLeave":7528,"Ġhatch":7529,"Ġcanker":7530,"feel":7531,"feits":7532,"ressed":7533,"ately":7534,"Ġbrass":7535,"ppet":7536,"pped":7537,"Ġorphan":7538,"allel":7539,"ĠShe":7540,"ĠSweet":7541,"Ġusure":7542,"ĠBes":7543,"ĠBraken":7544,"Ġarch":7545,"Ġargu":7546,"Ġarbit":7547,"Ġunple":7548,"Ġunrest":7549,"Ġworshi":7550,"ĠHa":7551,"ĠHear":7552,"ĠHerc":7553,"elting":7554,"Ġquake":7555,"Ġquaint":7556,"Ġjade":7557,"Ġjoc":7558,"Ġmusty":7559,"Ġgraft":7560,"Ġhole":7561,"cip":7562,"cially":7563,"Ġprog":7564,"Ġprocure":7565,"ĠPercy":7566,"ĠPatri":7567,"ĠPembroke":7568,"ĠPhaeth":7569,"ĠPhoeb":7570,"Ġsap":7571,"Ġmadly":7572,"Ġmadest":7573,"Ġmadman":7574,"ums":7575,"umes":7576,"umps":7577,"uments":7578,"umny":7579,"Ġplate":7580,"Ġplaints":7581,"people":7582,"ĠWh":7583,"ĠWelcome":7584,"ĠWales":7585,"ĠWalter":7586,"owned":7587,"Ġrats":7588,"Ġrites":7589,"Ġrising":7590,"Ġpox":7591,"Ġpoll":7592,"ptory":7593,"ĠAh":7594,"ĠAm":7595,"ĠAr":7596,"Ġtruer":7597,"Thoughts":7598,"Ġmarr":7599,"Ġmarble":7600,"Ġmariners":7601,"Ins":7602,"Infer":7603,"acks":7604,"Ġdisl":7605,"Ġdisorder":7606,"Ġaloof":7607,"Ġaltogether":7608,"Ġheap":7609,"oyal":7610,"Ġhears":7611,"echer":7612,"eches":7613,"Ġabst":7614,"Ġabod":7615,"Ġfold":7616,"Ġfoil":7617,"Ġearl":7618,"Ġearldom":7619,"Ġrode":7620,"Ġrocks":7621,"Ġexclaim":7622,"Ġexact":7623,"Ġexperience":7624,"Ġlooker":7625,"agine":7626,"ervation":7627,"aved":7628,"Ġripen":7629,"Ġridd":7630,"Ġrivers":7631,"tised":7632,"Wherefore":7633,"Ġslack":7634,"Ġwarn":7635,"Ġflame":7636,"ĠTur":7637,"ĠTunis":7638,"ffer":7639,"Ġbreeding":7640,"izab":7641,"sses":7642,"Ġclap":7643,"Ġprec":7644,"Ġpreced":7645,"Ġprerog":7646,"Ġsweets":7647,"Ġprays":7648,"Ġnobleman":7649,"Ġpledge":7650,"ĠDoricles":7651,"Ġperd":7652,"Ġperf":7653,"Ġpermit":7654,"Ġwrangling":7655,"aws":7656,"Ġtrades":7657,"Ġwayward":7658,"Ġheadstrong":7659,"lip":7660,"Ġscour":7661,"Ġscru":7662,"Ġscape":7663,"Ġpreserved":7664,"Ġqueens":7665,"Ġchival":7666,"Ġrages":7667,"Ġraging":7668,"Ġraiment":7669,"Ġragged":7670,"their":7671,"abour":7672,"ĠFear":7673,"ĠFran":7674,"Ġapply":7675,"Ġappell":7676,"Ġappoint":7677,"Ġarmed":7678,"Norfolk":7679,"sweet":7680,"Ġbegot":7681,"range":7682,"Ġmale":7683,"Ġimmediate":7684,"Ġlongest":7685,"ĠMarch":7686,"Ġreplied":7687,"Ġrepossess":7688,"Ġrepetition":7689,"Ġfriendship":7690,"Ġafoot":7691,"ĠJer":7692,"ĠJun":7693,"ĠJOHN":7694,"ĠJesu":7695,"Ġconspir":7696,"Ġconsumed":7697,"Ġconsidered":7698,"Ġperem":7699,"Ġlevy":7700,"Ġentrails":7701,"Ġlieutenant":7702,"chelor":7703,"Ġresort":7704,"Ġrescue":7705,"Ġtried":7706,"Ġmoan":7707,"Ġfollies":7708,"Ġprivy":7709,"Thyself":7710,"Ġchaf":7711,"Ġchap":7712,"Ġpeaceful":7713,"Ġelsewhere":7714,"ailing":7715,"asonable":7716,"Ġbackward":7717,"Ġcounted":7718,"Ġladyship":7719,"Ġneedle":7720,"Ġneedless":7721,"Ġtrembles":7722,"Ġhighway":7723,"Stanley":7724,"Ġhusbands":7725,"Ġbanquet":7726,"Ġminded":7727,"Ġbraved":7728,"Ġchest":7729,"Ġbribe":7730,"Ġshowers":7731,"Ġconfer":7732,"Ġconfines":7733,"Ġconfusion":7734,"Ġcoz":7735,"Ġcoal":7736,"Ġcoals":7737,"Ġcaused":7738,"Ġglories":7739,"Ġimpart":7740,"Ġimpud":7741,"Ġimpatience":7742,"Ġimpression":7743,"Ġimpatient":7744,"Ġimpediment":7745,"Ġbodes":7746,"Ġmistaking":7747,"Ġlightly":7748,"Ġlightness":7749,"Ġnatures":7750,"Ġpardons":7751,"Claudio":7752,"Ġbeseem":7753,"Ġhappier":7754,"Ġdevice":7755,"blown":7756,"Ġunderne":7757,"Ġundergo":7758,"Ġkilled":7759,"Ġfollowing":7760,"Ġfarm":7761,"Ġsunshine":7762,"Ġbush":7763,"Any":7764,"Ġstreet":7765,"Ġstream":7766,"Ġturned":7767,"Ġcomforts":7768,"Ġcomfortable":7769,"Ġsleeps":7770,"Ġsleepy":7771,"itories":7772,"Ġwelcomes":7773,"Ġthankful":7774,"Ġbox":7775,"Ġboon":7776,"Ġboat":7777,"Ġfights":7778,"Ġfighting":7779,"holds":7780,"Ġfalsely":7781,"plish":7782,"Ġmerciful":7783,"Ġmatters":7784,"Ġassault":7785,"Ġprisoners":7786,"Ġdangers":7787,"Ġdreamt":7788,"enerate":7789,"Ġstrait":7790,"Ġdischarged":7791,"Ġcommanding":7792,"Ġdared":7793,"Twill":7794,"Twice":7795,"Twenty":7796,"comp":7797,"Ġsisterhood":7798,"Ġfouler":7799,"versy":7800,"Ġdenial":7801,"Ġawry":7802,"Ġmerrim":7803,"Ġsupport":7804,"Ġsuppose":7805,"Ġsuppli":7806,"Ġbeating":7807,"Ġrequires":7808,"Ġrequired":7809,"Ġvalue":7810,"Ġaffright":7811,"Ġwoeful":7812,"Ġtenderly":7813,"Ġreturned":7814,"mph":7815,"mpet":7816,"Ġdeeper":7817,"Ġdeeply":7818,"Ġfootman":7819,"Ġchop":7820,"Ġcoldly":7821,"Ġnursed":7822,"azon":7823,"Ġplucks":7824,"shining":7825,"xton":7826,"Ġairy":7827,"Ġsuffice":7828,"Ġpastime":7829,"Ġfasting":7830,"Ġsilken":7831,"Ġstrongly":7832,"Canst":7833,"Ġpossessed":7834,"voke":7835,"voided":7836,"Ġinfring":7837,"Ġinfirm":7838,"Ġprofan":7839,"Ġprofits":7840,"Ġconfession":7841,"ĠNature":7842,"Ġmocking":7843,"Ġmockery":7844,"Ġforest":7845,"Ġdivided":7846,"Ġdivines":7847,"Ġdivision":7848,"Ġcarries":7849,"Ġposterity":7850,"Ġcounsels":7851,"Command":7852,"Commit":7853,"Ġterrible":7854,"Ġminstrel":7855,"Ġinconstant":7856,"Ġrecover":7857,"Ġresolute":7858,"nowledge":7859,"Ġharmless":7860,"ĠHector":7861,"Ġagreed":7862,"Ġwhipt":7863,"Ġdishon":7864,"Ġdisting":7865,"Ġdisturb":7866,"Ġdistressed":7867,"Ġtribune":7868,"Ġtribute":7869,"Ġdraws":7870,"Ġactor":7871,"Ġstirs":7872,"Ġstirring":7873,"Ġbreathes":7874,"Ġclosely":7875,"Ġforgiveness":7876,"Ġsufferance":7877,"Ġskulls":7878,"Ġsigns":7879,"Ġwisest":7880,"Ġregiment":7881,"Ġpoisonous":7882,"Ġcheerfully":7883,"shepherd":7884,"Ġtax":7885,"Ġdireful":7886,"Ġpays":7887,"Ġsuccor":7888,"Ġblessings":7889,"Ġbleed":7890,"Ġbleeds":7891,"Ġinterchange":7892,"Ġembass":7893,"Ġmalign":7894,"Ġhurried":7895,"Ġchamberlain":7896,"Ġcowardice":7897,"Ġlimits":7898,"Ġscorns":7899,"Ġwitnesses":7900,"Ġbroad":7901,"Ġcreated":7902,"Ġcreatures":7903,"Ġcaparison":7904,"ĠChristopher":7905,"Ġidly":7906,"Ġhideous":7907,"Ġbeastly":7908,"Ġrebel":7909,"Ġrebuke":7910,"Ġscarlet":7911,"Ġsecrets":7912,"Ġfills":7913,"Ġstrumpet":7914,"Ġpuppet":7915,"Ġinjurious":7916,"Ġinjuries":7917,"Ġinsulting":7918,"Ġinnocence":7919,"Ġadmit":7920,"Ġadmir":7921,"Ġadmitted":7922,"Ġfamish":7923,"Ġgovernor":7924,"Enough":7925,"Proud":7926,"Ġscholar":7927,"Ġmutiny":7928,"Ġlustful":7929,"Ġthreats":7930,"Ġindiffe":7931,"Ġindirect":7932,"Ġsolely":7933,"Ġgrandfather":7934,"Ġsafer":7935,"Ġsentenced":7936,"Ġdrunkard":7937,"Belike":7938,"Heart":7939,"Measure":7940,"Meantime":7941,"piring":7942,"Ġmounting":7943,"Ġfeat":7944,"Ġcaptive":7945,"ĠAntonio":7946,"Ġcontrad":7947,"Ġdegrees":7948,"Ġdemands":7949,"Ġremedies":7950,"Ġunderstanding":7951,"Ġgreetings":7952,"Ġtriumphs":7953,"Ġfarthest":7954,"Ġfaintly":7955,"Ġdwells":7956,"Ġthroats":7957,"Ġhunger":7958,"Ġgait":7959,"Ġgaol":7960,"Ġgape":7961,"Ġgaoler":7962,"Ġgentler":7963,"Ġchastity":7964,"Ġchastisement":7965,"Ġmiseries":7966,"Ġextremest":7967,"Ġscarcely":7968,"whelm":7969,"Ġfirmly":7970,"Ġholid":7971,"Ġinclination":7972,"Ġrelig":7973,"Ġunborn":7974,"Ġbootless":7975,"Ġconditions":7976,"Ġschoolmaster":7977,"Ġfruitful":7978,"Ġbald":7979,"Ġbachelor":7980,"Ġfeeding":7981,"Ġstooping":7982,"Ġunlawful":7983,"ĠAlas":7984,"therefore":7985,"Ġimportune":7986,"Ġprophecy":7987,"portion":7988,"Ġdecay":7989,"Ġknightly":7990,"Ġknighthood":7991,"Ġshrink":7992,"Ġroundly":7993,"Ġfrighted":7994,"Ġassistance":7995,"Ġdelights":7996,"Ġutterance":7997,"actors":7998,"Ġcreate":7999,"Ġlouder":8000,"Ġstarve":8001,"Ġjealousies":8002,"Ġrascals":8003,"Ġtreachery":8004,"Ġerror":8005,"Ġcalumny":8006,"Ġphysician":8007,"Ġweighty":8008,"Ġsupreme":8009,"runes":8010,"Ġpursued":8011,"Repent":8012,"Shame":8013,"paration":8014,"Ġwolves":8015,"Ġwonders":8016,"Ġbaseness":8017,"Ġbudge":8018,"Ġdiadem":8019,"Ġbeware":8020,"Ġrewards":8021,"Ġpronounced":8022,"Ġambition":8023,"Ġargos":8024,"ĠFlore":8025,"ĠFloriz":8026,"Ġcracking":8027,"Ġpenitence":8028,"Ġpublicly":8029,"Arm":8030,"Arise":8031,"doing":8032,"scap":8033,"Ġmagic":8034,"Ġhazel":8035,"Ġmerely":8036,"ĠCalais":8037,"ĠElizab":8038,"Ġapprehens":8039,"Ġgreyh":8040,"Ġcholeric":8041,"Consider":8042,"glass":8043,"Ġmillions":8044,"regory":8045,"Ġthorns":8046,"Ġbefal":8047,"Ġbefits":8048,"Ġnobler":8049,"ĠSTANLEY":8050,"Ġworthily":8051,"Ġadvertised":8052,"Ġperjury":8053,"Ġwitchcraft":8054,"Ġbrawl":8055,"Ġbrawling":8056,"Ġachieve":8057,"Ġachieved":8058,"Ġsyll":8059,"Ġwinged":8060,"Ġfunction":8061,"Ġhorror":8062,"Ġforsake":8063,"Ġevents":8064,"Ġdissemble":8065,"Ġclimb":8066,"ĠDeath":8067,"Ġrestraint":8068,"Ġafflict":8069,"ĠAntiates":8070,"Ġcircumstances":8071,"Condemn":8072,"Knock":8073,"Small":8074,"mongst":8075,"Ġtimeless":8076,"Ġwidows":8077,"Ġnapkin":8078,"Ġdebase":8079,"Ġsuperfl":8080,"Ġsplit":8081,"Ġvillany":8082,"Ġvolume":8083,"Ġshriek":8084,"Ġdispleasure":8085,"Ġdisguised":8086,"Ġscolding":8087,"Ġcouncil":8088,"Ġcouncils":8089,"Ġcurtain":8090,"Amongst":8091,"Between":8092,"Betwixt":8093,"Pursu":8094,"Seize":8095,"URREY":8096,"Ġbaggage":8097,"Ġhomage":8098,"Ġhigher":8099,"Ġpedlar":8100,"Ġhaughty":8101,"ĠGreece":8102,"ĠScotland":8103,"ĠSpeak":8104,"Ġunfeigned":8105,"Ġappeared":8106,"Ġconsorted":8107,"Ġbankrupt":8108,"Ġdragon":8109,"Ġtransported":8110,"Evermore":8111,"England":8112,"Ġsaucy":8113,"Ġmourning":8114,"Ġcentre":8115,"Ġissued":8116,"Ġsociety":8117,"Ġanchor":8118,"ĠEmilia":8119,"Ġshelter":8120,"ĠWelshmen":8121,"Ġimperial":8122,"Ġlecture":8123,"Ġrestored":8124,"Ġsmiling":8125,"Ġcounsellor":8126,"Ġinferior":8127,"Ġdivorce":8128,"Ġtroublous":8129,"Ġexpedition":8130,"Ġinsolence":8131,"Dispatch":8132,"Ġconcluded":8133,"Ġtestimony":8134,"Ġreckoning":8135,"Affection":8136,"Touching":8137,"posterous":8138,"Ġsands":8139,"Ġcordial":8140,"Ġpestilence":8141,"Ġpupil":8142,"Ġugly":8143,"Ġvulgar":8144,"Ġvassal":8145,"Ġamazement":8146,"Ġcanopy":8147,"Ġrancour":8148,"Ġpocket":8149,"Ġdisobed":8150,"Ġplebeians":8151,"Ġnightingale":8152,"Ġwhistle":8153,"Ġharlot":8154,"Ġmerrily":8155,"Ġterritories":8156,"Ġpuissant":8157,"Ġmedicine":8158,"BONA":8159,"EMILIA":8160,"Gainst":8161,"Grandam":8162,"Harp":8163,"NATHANIEL":8164,"Urge":8165,"iquity":8166,"Ġtonight":8167,"Ġsinew":8168,"Ġwestern":8169,"Ġfemale":8170,"Ġcuckold":8171,"Ġlungs":8172,"Ġobtain":8173,"Ġnotwithstanding":8174,"Ġeloqu":8175,"Ġsolicit":8176,"estival":8177,"Ġvineyard":8178,"ĠLodowick":8179,"ĠBrakenbury":8180,"ĠHercules":8181,"Ġjocund":8182,"ĠPatrician":8183,"ĠPhaethon":8184,"ĠPhoebus":8185,"Ġprecedent":8186,"Ġprerogative":8187,"ĠFrancis":8188,"Ġperemptory":8189,"Ġunderneath":8190,"Ġmerriment":8191,"Ġindifferent":8192,"ĠFlorizel":8193,"ĠElizabeth":8194,"Ġapprehension":8195,"'!":8196,"'--":8197,"Aufidius":8198,"ALIS":8199,"BL":8200,"Bad":8201,"Bore":8202,"Best":8203,"Breat":8204,"Back":8205,"Bohemia":8206,"Beshrew":8207,"Ch":8208,"Che":8209,"Cut":8210,"Chi":8211,"Care":8212,"CIS":8213,"Citizen":8214,"Charge":8215,"Dou":8216,"Dro":8217,"Die":8218,"Ele":8219,"EAR":8220,"Far":8221,"Fri":8222,"Fly":8223,"Fell":8224,"Fine":8225,"Found":8226,"FRAN":8227,"Fool":8228,"Friar":8229,"Fellow":8230,"Gl":8231,"Gu":8232,"Gold":8233,"Gloucester":8234,"Grumio":8235,"Girl":8236,"Given":8237,"Hard":8238,"Host":8239,"Hap":8240,"HOMAS":8241,"Holy":8242,"Ill":8243,"Jul":8244,"Jesu":8245,"Katharina":8246,"Less":8247,"Last":8248,"Lend":8249,"Little":8250,"Lives":8251,"Man":8252,"Mount":8253,"Mere":8254,"Masters":8255,"Mercy":8256,"Near":8257,"Night":8258,"Nine":8259,"Opp":8260,"Oxford":8261,"Pit":8262,"Perc":8263,"Pale":8264,"Red":8265,"Rest":8266,"Ref":8267,"Sin":8268,"Sen":8269,"Sent":8270,"Sad":8271,"Sel":8272,"Soul":8273,"Sorrow":8274,"Sto":8275,"Sland":8276,"Seal":8277,"Sleep":8278,"Tong":8279,"Time":8280,"Tran":8281,"Takes":8282,"Trem":8283,"Tullus":8284,"UNT":8285,"Went":8286,"Yonder":8287,"ait":8288,"aus":8289,"avery":8290,"aled":8291,"acious":8292,"against":8293,"avoided":8294,"bre":8295,"bro":8296,"ball":8297,"book":8298,"bred":8299,"bject":8300,"bham":8301,"bhors":8302,"business":8303,"cas":8304,"could":8305,"cond":8306,"creat":8307,"corn":8308,"chard":8309,"certain":8310,"cats":8311,"custom":8312,"content":8313,"cued":8314,"cency":8315,"dan":8316,"dent":8317,"dur":8318,"dro":8319,"dish":8320,"dict":8321,"doubt":8322,"deliver":8323,"ele":8324,"every":8325,"eress":8326,"eases":8327,"fan":8328,"fix":8329,"fellows":8330,"gom":8331,"gher":8332,"gone":8333,"gnant":8334,"hill":8335,"hra":8336,"ias":8337,"ige":8338,"iod":8339,"iber":8340,"iable":8341,"iction":8342,"iby":8343,"ky":8344,"lay":8345,"lord":8346,"lous":8347,"live":8348,"lves":8349,"lorn":8350,"lause":8351,"mo":8352,"min":8353,"mast":8354,"mak":8355,"matter":8356,"mony":8357,"net":8358,"none":8359,"nel":8360,"need":8361,"oz":8362,"oft":8363,"oever":8364,"phe":8365,"pse":8366,"pter":8367,"pho":8368,"past":8369,"part":8370,"pence":8371,"poor":8372,"piece":8373,"pril":8374,"poses":8375,"rings":8376,"rates":8377,"roop":8378,"sl":8379,"sir":8380,"sil":8381,"song":8382,"sist":8383,"since":8384,"serv":8385,"sorrow":8386,"sby":8387,"sia":8388,"school":8389,"te":8390,"too":8391,"tree":8392,"true":8393,"tered":8394,"trick":8395,"tsey":8396,"uc":8397,"uing":8398,"uity":8399,"ubs":8400,"ugg":8401,"ueless":8402,"vill":8403,"vion":8404,"vity":8405,"vice":8406,"viol":8407,"wr":8408,"wind":8409,"worn":8410,"ween":8411,"widow":8412,"wench":8413,"warn":8414,"worth":8415,"yally":8416,"ymph":8417,"zwater":8418,"Ġ&":8419,"ĠĠ":8420,"ĠNot":8421,"ĠThese":8422,"Ġtil":8423,"Ġtum":8424,"Ġtire":8425,"Ġtatter":8426,"Ġtides":8427,"Ġtunes":8428,"Ġtales":8429,"Ġteeming":8430,"Ġtumbling":8431,"hen":8432,"hence":8433,"Ġau":8434,"Ġaust":8435,"Ġaery":8436,"Ġaches":8437,"Ġsly":8438,"Ġsurn":8439,"Ġsongs":8440,"Ġmot":8441,"Ġmow":8442,"Ġming":8443,"Ġmart":8444,"Ġmum":8445,"Ġmap":8446,"Ġmass":8447,"Ġmute":8448,"Ġmuse":8449,"inc":8450,"inet":8451,"inance":8452,"inable":8453,"inite":8454,"Ġwra":8455,"Ġware":8456,"Ġwaken":8457,"Ġwaning":8458,"Ġwenches":8459,"Ġwalks":8460,"reef":8461,"repare":8462,"reement":8463,"haw":8464,"hast":8465,"happ":8466,"nders":8467,"Ġbust":8468,"Ġbone":8469,"Ġbau":8470,"Ġbind":8471,"Ġbate":8472,"Ġbide":8473,"Ġbaw":8474,"Ġbier":8475,"Ġbale":8476,"Ġbount":8477,"Ġbench":8478,"Ġbash":8479,"Ġbills":8480,"isk":8481,"isle":8482,"Ġfen":8483,"Ġfed":8484,"Ġfut":8485,"Ġfate":8486,"Ġfence":8487,"Ġfile":8488,"Ġfester":8489,"Ġfitted":8490,"Ġfees":8491,"Ġfitting":8492,"Ġfowl":8493,"Ġfront":8494,"Ġfickle":8495,"Ġfathom":8496,"Ġfestival":8497,"erman":8498,"eria":8499,"erwhelm":8500,"itche":8501,"Ġdun":8502,"Ġdaint":8503,"Ġdastard":8504,"Ġdaring":8505,"Ġduteous":8506,"Ġdainty":8507,"Ġced":8508,"Ġcas":8509,"Ġcard":8510,"Ġcele":8511,"Ġnearer":8512,"Ġnerves":8513,"Ġniece":8514,"Ġnuns":8515,"Ġnearest":8516,"Ġnymph":8517,"Ġninet":8518,"Ġlain":8519,"Ġlame":8520,"Ġlass":8521,"Ġlaughter":8522,"Ġlaz":8523,"Ġlecher":8524,"Ġyew":8525,"Ġyellow":8526,"Ġthra":8527,"Ġthres":8528,"Ġthrew":8529,"Ġthreef":8530,"arth":8531,"arling":8532,"Ġhook":8533,"Ġhilt":8534,"Ġhint":8535,"Ġhounds":8536,"Ġhills":8537,"Ġox":8538,"Ġost":8539,"Ġoce":8540,"Ġtoss":8541,"Ġphe":8542,"Ġpir":8543,"Ġpith":8544,"Ġpoo":8545,"Ġpul":8546,"Ġpull":8547,"Ġpark":8548,"Ġpens":8549,"Ġpotion":8550,"Ġpines":8551,"Ġpals":8552,"Ġpiled":8553,"Ġprunes":8554,"ĠIrish":8555,"Ġhen":8556,"Ġhew":8557,"Ġhedge":8558,"oting":8559,"oted":8560,"stit":8561,"stood":8562,"stool":8563,"strue":8564,"staring":8565,"owing":8566,"ange":8567,"anous":8568,"another":8569,"anks":8570,"answer":8571,"oming":8572,"Ġgle":8573,"Ġgay":8574,"Ġgir":8575,"Ġgear":8576,"Ġgilt":8577,"Ġgild":8578,"Ġgorge":8579,"Ġginger":8580,"Ġglove":8581,"atin":8582,"athan":8583,"atory":8584,"atiate":8585,"Ġbeho":8586,"Ġbecom":8587,"sea":8588,"Ġinhabit":8589,"Ġhab":8590,"Ġhaven":8591,"lex":8592,"lehill":8593,"ayer":8594,"ldren":8595,"iry":8596,"edy":8597,"uto":8598,"utus":8599,"utches":8600,"imple":8601,"Ġnotorious":8602,"cho":8603,"Ġissues":8604,"Ġforn":8605,"Ġforms":8606,"Ġforlorn":8607,"keep":8608,"Ġweb":8609,"ooing":8610,"Ġeg":8611,"Ġel":8612,"Ġew":8613,"Ġegg":8614,"hertsey":8615,"enting":8616,"rip":8617,"rian":8618,"ribe":8619,"Ġsty":8620,"Ġstart":8621,"Ġstall":8622,"Ġstage":8623,"Ġstint":8624,"Ġstew":8625,"Ġstray":8626,"Ġsteter":8627,"Ġstring":8628,"Ġstarts":8629,"Ġstrat":8630,"Ġkern":8631,"Ġkenn":8632,"ashy":8633,"asci":8634,"asite":8635,"Ġrevers":8636,"Ġrelish":8637,"Ġrelease":8638,"Ġrevell":8639,"lying":8640,"lysses":8641,"raign":8642,"Ġliars":8643,"urity":8644,"urther":8645,"urps":8646,"urbs":8647,"urope":8648,"alf":8649,"alo":8650,"alance":8651,"alty":8652,"Ġsoar":8653,"Ġsober":8654,"Ġsolace":8655,"Ġascend":8656,"Ġaspiring":8657,"rosby":8658,"hilip":8659,"vering":8660,"Ġshamed":8661,"Ġdol":8662,"Ġdoit":8663,"Ġdoings":8664,"usc":8665,"usale":8666,"usual":8667,"ussia":8668,"ifter":8669,"Ġsem":8670,"Ġsex":8671,"Ġsevent":8672,"Ġsepar":8673,"geon":8674,"geal":8675,"Thither":8676,"Throng":8677,"Ġsues":8678,"Ġsuret":8679,"Ġsulp":8680,"Told":8681,"Together":8682,"Ġherds":8683,"rung":8684,"ruised":8685,"things":8686,"thought":8687,"thren":8688,"Ġant":8689,"Ġangu":8690,"ternal":8691,"arded":8692,"hance":8693,"hanging":8694,"Ġspot":8695,"Ġspell":8696,"Ġspear":8697,"Ġspurn":8698,"Ġspace":8699,"Ġspotted":8700,"Ġfails":8701,"Ġfabric":8702,"ĠCy":8703,"ĠCot":8704,"ĠCast":8705,"ĠCall":8706,"ĠChertsey":8707,"ĠCrosby":8708,"Ġknell":8709,"Ġknavery":8710,"ĠRag":8711,"ĠRoss":8712,"ĠRussia":8713,"Ġvest":8714,"Ġvio":8715,"Ġvap":8716,"Ġvices":8717,"asted":8718,"astian":8719,"Ġwhate":8720,"ighton":8721,"Ġshine":8722,"Ġshouts":8723,"ulation":8724,"Ġupper":8725,"qua":8726,"quin":8727,"quis":8728,"qual":8729,"quess":8730,"quaint":8731,"quiet":8732,"Ġgoodman":8733,"usters":8734,"Ġpry":8735,"Ġatone":8736,"Ġmanly":8737,"Ġmankind":8738,"Ġmanacles":8739,"Ġmangled":8740,"ĠMab":8741,"Ġwheres":8742,"Ġwheels":8743,"ĠEurope":8744,"Ġamity":8745,"Ġamended":8746,"endom":8747,"icing":8748,"ican":8749,"icide":8750,"icester":8751,"Ġconver":8752,"Ġconvers":8753,"Ġconvent":8754,"Ġconstable":8755,"Ġblots":8756,"Ġblasp":8757,"vener":8758,"ĠGuild":8759,"ĠGregory":8760,"Forget":8761,"Ġshepher":8762,"Ġsheets":8763,"eminate":8764,"Ġgoest":8765,"areth":8766,"Ġwasp":8767,"oln":8768,"ĠLay":8769,"ĠLud":8770,"ĠLatin":8771,"Ġhatches":8772,"Ġknowest":8773,"Ġcannib":8774,"ersha":8775,"ershire":8776,"Ġsayest":8777,"Ġswim":8778,"Ġswine":8779,"Ġswifter":8780,"Ġbrine":8781,"Ġbrittle":8782,"pper":8783,"Ġorchard":8784,"ĠSay":8785,"ĠSome":8786,"ĠSix":8787,"ĠShow":8788,"ĠSeb":8789,"ĠSURREY":8790,"ĠSALIS":8791,"Ġusing":8792,"Ġusage":8793,"ĠOf":8794,"ĠOr":8795,"ĠOnce":8796,"ĠOverdone":8797,"ĠBel":8798,"ĠBoy":8799,"ĠBret":8800,"ĠBrist":8801,"ĠBrand":8802,"ĠBishop":8803,"odity":8804,"Ġung":8805,"Ġunity":8806,"Ġunman":8807,"Ġunaw":8808,"Ġunlo":8809,"Ġungra":8810,"Ġunacc":8811,"Ġungentle":8812,"Ġunivers":8813,"Ġunthrift":8814,"Ġunavoided":8815,"Ġunusual":8816,"igation":8817,"ĠHad":8818,"ĠHas":8819,"ĠHallow":8820,"hyme":8821,"elpho":8822,"Ġquest":8823,"Whence":8824,"Ġjar":8825,"Ġjump":8826,"Ġjoll":8827,"Ġhoped":8828,"cible":8829,"cipl":8830,"Ġprover":8831,"Ġproduce":8832,"Ġproffer":8833,"ĠPut":8834,"ĠPil":8835,"ĠPriam":8836,"ĠPhilip":8837,"Ġsails":8838,"umn":8839,"Ġplent":8840,"Ġplotted":8841,"pecially":8842,"ĠWife":8843,"Ġensue":8844,"Ġenroll":8845,"Ġenjoin":8846,"Ġenfranch":8847,"unch":8848,"Ġrood":8849,"Ġrings":8850,"Ġrates":8851,"Ġoutst":8852,"pted":8853,"pture":8854,"Ġhowl":8855,"ĠAE":8856,"ĠAg":8857,"ĠAt":8858,"ĠAfri":8859,"ĠAriel":8860,"ĠAbhors":8861,"ĠApril":8862,"Ġtrudge":8863,"Ġhandle":8864,"Ġsomebod":8865,"Ġmarquess":8866,"Inf":8867,"acket":8868,"ĠYes":8869,"Ġdislike":8870,"Ġdishes":8871,"Ġdisposed":8872,"Ġdiseases":8873,"Ġdiscipl":8874,"Ġhearth":8875,"Ġability":8876,"Ġabuses":8877,"Ġfoaming":8878,"Ġdaylight":8879,"Ġrod":8880,"Ġroad":8881,"Ġrope":8882,"Ġrogues":8883,"Ġroyally":8884,"Ġexha":8885,"Ġexternal":8886,"Ġtellus":8887,"agate":8888,"agems":8889,"Ġrip":8890,"Ġarticles":8891,"Ġarticle":8892,"Ġslide":8893,"Ġslanders":8894,"Ġwary":8895,"Ġwarning":8896,"Ġflour":8897,"Ġflag":8898,"Ġfliers":8899,"Ġfearless":8900,"ĠTHOMAS":8901,"bery":8902,"bering":8903,"oughby":8904,"Ġbrethren":8905,"Beg":8906,"apable":8907,"ighs":8908,"Ġgreatly":8909,"Ġfairies":8910,"izard":8911,"Ġpartake":8912,"Ġpartial":8913,"Ġcalling":8914,"Ġadul":8915,"Ġadorn":8916,"Ġadult":8917,"Ġadder":8918,"Ġcommit":8919,"Ġcommodity":8920,"Yourself":8921,"Ġclothe":8922,"Ġpreparation":8923,"Ġpregnant":8924,"assad":8925,"ĠDion":8926,"ĠDelpho":8927,"Ġperused":8928,"Ġperiod":8929,"liction":8930,"livion":8931,"Ġscra":8932,"Ġscare":8933,"Ġscars":8934,"Ġscouts":8935,"Ġpresum":8936,"Ġpresses":8937,"Ġprescri":8938,"Ġnightly":8939,"pery":8940,"peror":8941,"peration":8942,"Ġraw":8943,"Ġrarest":8944,"Ġraze":8945,"Ġrabble":8946,"Ġkeen":8947,"abb":8948,"ĠFifth":8949,"Ġapplause":8950,"Ġcontem":8951,"Ġremiss":8952,"Ġremote":8953,"ilty":8954,"swear":8955,"sworn":8956,"ressing":8957,"Ġbegging":8958,"Ġlongs":8959,"Ġlonging":8960,"ĠMark":8961,"Ġlively":8962,"meant":8963,"Ġrepaid":8964,"Ġreproof":8965,"Ġreprieve":8966,"forward":8967,"Ġmightily":8968,"atching":8969,"ĠJud":8970,"ĠJule":8971,"Ġrub":8972,"Ġconsume":8973,"Ġconserves":8974,"Ġcrowned":8975,"Ġpeck":8976,"Ġpeasant":8977,"hallow":8978,"Ġlevied":8979,"Ġharms":8980,"Ġharder":8981,"Ġresteth":8982,"Ġcourses":8983,"Ġentire":8984,"attery":8985,"Ġtongueless":8986,"Ġkeeping":8987,"iously":8988,"Ġslender":8989,"Ġreserved":8990,"Ġresidence":8991,"fts":8992,"Ġmoans":8993,"Ġmolehill":8994,"retion":8995,"Ġhourly":8996,"uddy":8997,"Ġendow":8998,"Ġendea":8999,"ieldy":9000,"Ġpricks":9001,"Ġpurged":9002,"Ġpurses":9003,"Ġpursues":9004,"Ġpurposes":9005,"Ġcompell":9006,"Ġcomposition":9007,"ertainty":9008,"Ġchain":9009,"Ġchaff":9010,"Ġchains":9011,"Prosper":9012,"Ġsuborn":9013,"Ġsubsc":9014,"Ġsubmission":9015,"Ġsuburbs":9016,"Ġsmiled":9017,"Ġsmelt":9018,"ected":9019,"Ġtraged":9020,"Ġtragic":9021,"Ġtraffic":9022,"Ġhush":9023,"Ġneedy":9024,"two":9025,"Ġtreble":9026,"Stir":9027,"Ġseemeth":9028,"Ġrightly":9029,"aching":9030,"Ġbragg":9031,"Ġbrazen":9032,"Ġcheers":9033,"Ġcharms":9034,"Ġcharters":9035,"Ġcharitable":9036,"Ġchanges":9037,"Ġconfined":9038,"Ġhandsome":9039,"beha":9040,"bered":9041,"Ġcoats":9042,"Ġglister":9043,"Ġimpose":9044,"Ġfortnight":9045,"Ġfortunate":9046,"Ġbringing":9047,"Ġmistook":9048,"Ġpasses":9049,"Ġthrong":9050,"Ġpleaseth":9051,"ĠAnswer":9052,"Clifford":9053,"Ġbesiege":9054,"Ġjustly":9055,"Ġjustify":9056,"Ġwrongfully":9057,"Ġmiscar":9058,"ension":9059,"Ġplaced":9060,"blind":9061,"Ġundert":9062,"Ġhelping":9063,"Ġlesson":9064,"Ġfooling":9065,"Ġsuns":9066,"Ġchid":9067,"Ġchides":9068,"Ġchron":9069,"Unb":9070,"Unw":9071,"Ġbusied":9072,"Angelo":9073,"overed":9074,"Ġstride":9075,"Ġstripes":9076,"ivity":9077,"Ġstreak":9078,"Ġwomanish":9079,"Ġturning":9080,"Ġhumane":9081,"Ġbelongs":9082,"Ġcourts":9083,"Ġtalked":9084,"Ġoverheard":9085,"Ġoverthrow":9086,"Ġbuilt":9087,"Ġburial":9088,"Ġibat":9089,"Ġattent":9090,"Ġattach":9091,"Ġplays":9092,"Ġinstance":9093,"Ġinstead":9094,"Ġwelcom":9095,"Ġwelkin":9096,"Ġcurs":9097,"Ġcurbs":9098,"Ġemulation":9099,"pling":9100,"plain":9101,"Ġsending":9102,"Ġcountryman":9103,"Ġdoubted":9104,"Ġwishing":9105,"Ġreasonable":9106,"Wouldst":9107,"Ġdances":9108,"Ġbreaths":9109,"Ġgiant":9110,"Ġstrain":9111,"Ġdiscred":9112,"Ġdiscords":9113,"Ġdiscreet":9114,"Ġdiscovery":9115,"Ġdiscretion":9116,"Alone":9117,"Ġsenis":9118,"Ġcommandment":9119,"Ġwinding":9120,"Ġstrang":9121,"Ġswearing":9122,"Ġdepth":9123,"comb":9124,"comfort":9125,"Ġtending":9126,"Ġgreets":9127,"Ġgetting":9128,"Ġintends":9129,"Ġintended":9130,"Ġinterest":9131,"Ġkissing":9132,"Ġbreaking":9133,"Ġawe":9134,"Ġawful":9135,"Hermione":9136,"Ġtemperate":9137,"Ġsupple":9138,"Ġspoils":9139,"Ġlamp":9140,"Ġrequite":9141,"Ġrequital":9142,"Ġmete":9143,"Ġsoonest":9144,"Ġreturns":9145,"acre":9146,"ackey":9147,"Ġmarrying":9148,"Ġfooting":9149,"Ġwarrants":9150,"ĠJulius":9151,"Ġthroughly":9152,"soe":9153,"Ġchoke":9154,"Ġcolder":9155,"Ġasked":9156,"Ġplucked":9157,"show":9158,"ĠMontgom":9159,"Ġstrangely":9160,"Ġbats":9161,"Ġentreated":9162,"Whoop":9163,"Ġvisor":9164,"Ġdispro":9165,"ixture":9166,"Mayor":9167,"Ġordain":9168,"Ġordinance":9169,"Ġquicken":9170,"Ġdesired":9171,"Ġhardy":9172,"Ġwooers":9173,"Ġinfancy":9174,"Ġinfamy":9175,"Ġinflu":9176,"Ġinfinite":9177,"Become":9178,"Spoke":9179,"Ġwearing":9180,"Ġdelivery":9181,"Ġspeedily":9182,"Ġquarre":9183,"Ġprofound":9184,"Ġstrengthen":9185,"cession":9186,"Ġforefather":9187,"Ġforerun":9188,"Ġforetell":9189,"Ġdivide":9190,"Ġcarrion":9191,"Ġposts":9192,"Ġposterns":9193,"Ġexecut":9194,"Ġparch":9195,"Ġparadise":9196,"Ġparlous":9197,"Ġparasite":9198,"Ġincur":9199,"Ġincapable":9200,"Ġrecount":9201,"ĠTheir":9202,"Ġtitles":9203,"Ġopening":9204,"Ġshorten":9205,"Ġseeking":9206,"Ġmurdering":9207,"changing":9208,"Ġvehe":9209,"ĠHelp":9210,"Ġagony":9211,"Ġagreement":9212,"Ġwhipped":9213,"Ġwatchful":9214,"Ġdistemper":9215,"Seeking":9216,"Ġacting":9217,"Ġwasted":9218,"Ġwondering":9219,"Ġbites":9220,"Ġbiting":9221,"Ġstole":9222,"Ġstirru":9223,"Ġclouded":9224,"suing":9225,"Ġdrinks":9226,"Ġpraised":9227,"Ġenterpr":9228,"voury":9229,"Ġfitter":9230,"Ġgarlic":9231,"Ġchangeling":9232,"Ġdeliverance":9233,"LORDS":9234,"ĠThink":9235,"Ġskin":9236,"Ġsickly":9237,"Ġsignories":9238,"Ġwishes":9239,"Ġregion":9240,"Ġregreet":9241,"Ġconsuls":9242,"Ġcheerful":9243,"Ġordering":9244,"Ġorderly":9245,"Ġfourth":9246,"Ġdug":9247,"Ġducats":9248,"Ġliberties":9249,"verns":9250,"Ġmoveables":9251,"shell":9252,"sheathe":9253,"Ġfrowning":9254,"Ġfeasting":9255,"Ġgrove":9256,"Ġsoften":9257,"Ġbeggary":9258,"Ġconsented":9259,"Revol":9260,"ĠForrest":9261,"hematic":9262,"Ġbarb":9263,"Ġbarr":9264,"Ġbargain":9265,"Ġdropp":9266,"Ġdarken":9267,"Ġdarkly":9268,"Ġcrad":9269,"Ġcrimes":9270,"Ġcrutch":9271,"ĠChurch":9272,"Ġexpost":9273,"Ġgotten":9274,"Ġintercept":9275,"Ġintercession":9276,"Ġevident":9277,"Ġsummon":9278,"Ġvictorious":9279,"Ġrespects":9280,"Ġbriefly":9281,"Ġvisiting":9282,"Ġmalicious":9283,"Ġspeechless":9284,"Ġworshipful":9285,"spo":9286,"Ġfresher":9287,"Ġfreshest":9288,"Ġlimb":9289,"Ġpenury":9290,"Ġpenny":9291,"ĠPlace":9292,"ĠPlayer":9293,"ĠPlashy":9294,"Ġleader":9295,"Ġpatiently":9296,"Ġlamentations":9297,"Ġbroils":9298,"Ġbawdy":9299,"Ġcleft":9300,"Ġcreation":9301,"Ġcapable":9302,"Ġcapital":9303,"Ġlacks":9304,"Ġopposed":9305,"Ġeating":9306,"Ġviolate":9307,"Ġapproaches":9308,"Ġcomplices":9309,"ĠChristendom":9310,"Ġsurm":9311,"Ġsurly":9312,"Ġsurvey":9313,"Conf":9314,"Plain":9315,"Pluck":9316,"Ġbirths":9317,"arlisle":9318,"Ġpainful":9319,"Ġbecame":9320,"Standing":9321,"Ġtorches":9322,"Ġtorments":9323,"Ġwildly":9324,"Ġcaus":9325,"Ġcertainly":9326,"semary":9327,"Ġinjured":9328,"Ġinnocency":9329,"Ġurging":9330,"Thinking":9331,"ĠStand":9332,"ĠStaff":9333,"Ġpleasures":9334,"Mariner":9335,"Ġapothecary":9336,"Ġshock":9337,"Ġmeditation":9338,"Ġobst":9339,"Ġobdur":9340,"Ġoblivion":9341,"Ġdooms":9342,"Ġfavourable":9343,"Ġuncertain":9344,"ighbours":9345,"ĠEnglishman":9346,"Ġlane":9347,"settled":9348,"Ġrefuge":9349,"ĠMercury":9350,"Ġtempor":9351,"Enforce":9352,"Envir":9353,"bborn":9354,"himself":9355,"Ġdrowning":9356,"angled":9357,"Ġeffects":9358,"Ġswiftly":9359,"ĠPrithee":9360,"Ġdesperately":9361,"Ġdoublet":9362,"Meaning":9363,"Ġauthorities":9364,"Ġfruits":9365,"Ġelders":9366,"Ġstudies":9367,"Ġstudied":9368,"Ġenjoys":9369,"Ġwretchedness":9370,"Brought":9371,"eye":9372,"eyed":9373,"Ġbastardy":9374,"Ġcorners":9375,"Ġhelms":9376,"stantial":9377,"Ġdegenerate":9378,"Ġseverity":9379,"ĠWilloughby":9380,"Ġcountermand":9381,"Ġcounterpo":9382,"Ġbeggarly":9383,"Loved":9384,"monstrous":9385,"Ġdwelling":9386,"Ġgentry":9387,"Ġbutchers":9388,"Ġunfit":9389,"Ġadded":9390,"Ġprivately":9391,"Ġverge":9392,"Ġverity":9393,"attling":9394,"Ġrelation":9395,"Ġrelieve":9396,"Ġdealing":9397,"Ġarrival":9398,"Ġsmoking":9399,"Blind":9400,"Desp":9401,"Except":9402,"constable":9403,"Ġbait":9404,"Ġstabbed":9405,"Ġspeeches":9406,"Ġshores":9407,"Ġproofs":9408,"Ġjointure":9409,"Ġprophecies":9410,"Ġembracements":9411,"Ġinnocents":9412,"Adieu":9413,"Advance":9414,"Ġedict":9415,"Ġwagon":9416,"rehend":9417,"Ġelection":9418,"Ġelements":9419,"Ġdecree":9420,"Ġdecrees":9421,"Ġnecessary":9422,"Ġnecessities":9423,"Ġsailors":9424,"Ġprevails":9425,"Rescue":9426,"Ġescap":9427,"ĠWherefore":9428,"Ġoffenders":9429,"Ġheaviness":9430,"Ġheavily":9431,"Showing":9432,"Ġprofession":9433,"Ġexpressly":9434,"appare":9435,"proud":9436,"Ġbandy":9437,"Ġbondage":9438,"Ġdetested":9439,"Ġcalf":9440,"Ġphysicians":9441,"Ġvanqu":9442,"Ġvanish":9443,"Ġdeserts":9444,"Ġtransg":9445,"Ġaffected":9446,"Ġleanness":9447,"Ġaccusations":9448,"Ġpunishment":9449,"Repair":9450,"Ġbasil":9451,"Ġfeeble":9452,"Ġfashions":9453,"Ġdivers":9454,"Ġports":9455,"Ġportion":9456,"Ġbewray":9457,"Ġcomplete":9458,"Ġambush":9459,"Ġambassad":9460,"Ġargument":9461,"Ġarguments":9462,"ĠProceed":9463,"Ġadvancement":9464,"Ġpersuaded":9465,"Ġpetitions":9466,"Ġsolemnity":9467,"Bearing":9468,"Heavens":9469,"exec":9470,"score":9471,"itae":9472,"Ġhostess":9473,"Ġobscured":9474,"Ġshunn":9475,"Ġblocks":9476,"Ġquality":9477,"Ġqualities":9478,"Ġqualify":9479,"Ġalteration":9480,"Ġmaidenhead":9481,"Ġvexation":9482,"Setting":9483,"brain":9484,"Ġmorsel":9485,"Ġdigest":9486,"Ġthorny":9487,"Ġsprites":9488,"ĠCobham":9489,"Ġcombat":9490,"Ġworthier":9491,"Ġworthiest":9492,"Ġjewels":9493,"ĠAdam":9494,"ĠAdieu":9495,"Ġdisperse":9496,"Ġclamorous":9497,"Ġdirectly":9498,"Accursed":9499,"maids":9500,"shapen":9501,"weary":9502,"Ġsymp":9503,"Ġsalute":9504,"Ġfiends":9505,"Ġdimm":9506,"Ġdriven":9507,"Ġceremony":9508,"Ġlinen":9509,"Ġhorrible":9510,"Ġpikes":9511,"Ġforsook":9512,"Ġreckless":9513,"Ġunjustly":9514,"Ġenforcement":9515,"Ġdissembling":9516,"Ġfloods":9517,"Ġrestrain":9518,"Ġresisted":9519,"Ġaffliction":9520,"Ġreconciled":9521,"Ġhelmets":9522,"Ġcomplexions":9523,"Imagine":9524,"Knows":9525,"Quick":9526,"Rich":9527,"Richmond":9528,"Smile":9529,"boding":9530,"ratitude":9531,"warrant":9532,"Ġtimorous":9533,"oubted":9534,"Ġmirror":9535,"Ġmessage":9536,"inctly":9537,"Ġbuckle":9538,"Ġdifferen":9539,"Ġdifference":9540,"Ġlineal":9541,"Ġgrub":9542,"Ġstumbled":9543,"Ġreceives":9544,"Ġreceipt":9545,"Ġshameless":9546,"Ġfactious":9547,"Ġdispleased":9548,"Ġdisguise":9549,"Ġcoffin":9550,"Ġcoffers":9551,"Ġgratis":9552,"Ġincense":9553,"Ġacquaintance":9554,"Awaked":9555,"Darest":9556,"Witness":9557,"Withal":9558,"pretation":9559,"Ġtoucheth":9560,"Ġtrod":9561,"Ġbonny":9562,"Ġfretting":9563,"Ġnettle":9564,"Ġlurk":9565,"Ġlurking":9566,"Ġthirsty":9567,"Ġhomicide":9568,"Ġhighest":9569,"Ġtoys":9570,"Ġwealthy":9571,"Ġspectacle":9572,"Ġblasts":9573,"ĠValent":9574,"ĠValeria":9575,"Ġhopeless":9576,"Ġengross":9577,"Ġflinty":9578,"Ġbeguiled":9579,"Ġsubdue":9580,"Ġsubdued":9581,"Ġbeauties":9582,"Ġbeautiful":9583,"Ġsacrifice":9584,"Ġlengthens":9585,"Brave":9586,"Persuade":9587,"Persuades":9588,"Write":9589,"called":9590,"contin":9591,"Ġsession":9592,"Ġmathematic":9593,"Ġporter":9594,"Ġpainting":9595,"Ġgnaw":9596,"Ġgainsay":9597,"seeming":9598,"Ġgossips":9599,"Ġuneven":9600,"Ġunrevere":9601,"Ġprodigy":9602,"Ġprodigal":9603,"Ġencourage":9604,"Ġdisinherit":9605,"Ġdisinherited":9606,"Ġabundant":9607,"Ġabundance":9608,"Ġrobbers":9609,"Ġcontrol":9610,"Ġcontroversy":9611,"Ġaccomplish":9612,"Ġtrenches":9613,"Ġbuzzard":9614,"Ġattorneys":9615,"Ġdrooping":9616,"Ġembraced":9617,"Ġobsequies":9618,"Ġdetestable":9619,"Acquaint":9620,"Caius":9621,"beseeming":9622,"tinent":9623,"Ġmasqu":9624,"Ġbulk":9625,"Ġfifty":9626,"Ġfilthy":9627,"Ġcropp":9628,"Ġpowder":9629,"Ġpicture":9630,"Ġeffeminate":9631,"Ġstinking":9632,"Ġdeceased":9633,"Ġdeformity":9634,"Ġdoleful":9635,"Ġannoy":9636,"Ġancestors":9637,"Ġsparkling":9638,"ĠLovel":9639,"Ġplanet":9640,"ĠWestmin":9641,"Ġrheum":9642,"Ġrigour":9643,"Ġclergy":9644,"Ġeverlasting":9645,"Ġrumour":9646,"Ġaccompany":9647,"Ġchampion":9648,"Ġconfederate":9649,"Ġafterwards":9650,"Happily":9651,"Ġcriminal":9652,"Ġsummers":9653,"Ġinsinuate":9654,"Ġunprovided":9655,"Ġunluckily":9656,"Ġmagistrate":9657,"Ġlineaments":9658,"Ġsurprised":9659,"Ġfantastical":9660,"Ġmomentary":9661,"Banish":9662,"Deny":9663,"Destroy":9664,"Err":9665,"Renowned":9666,"married":9667,"minded":9668,"person":9669,"sometimes":9670,"withal":9671,"ĠUlysses":9672,"Ġturtle":9673,"Ġtinker":9674,"Ġtreaty":9675,"Ġacknowledge":9676,"Ġmantle":9677,"Ġderived":9678,"Ġdiligence":9679,"Ġdrowsy":9680,"Ġcandle":9681,"Ġyesternight":9682,"Ġominous":9683,"Ġgamut":9684,"Ġbeetle":9685,"Ġinveterate":9686,"Ġinvention":9687,"Ġinheritance":9688,"imois":9689,"Ġstubborn":9690,"Ġresemblance":9691,"ĠCleomenes":9692,"Ġvigour":9693,"Forthwith":9694,"ĠLammas":9695,"Ġorphans":9696,"Ġusurer":9697,"Ġunpleasing":9698,"Ġworships":9699,"ĠHappy":9700,"ĠAmazon":9701,"Ġdisloyal":9702,"Ġexclaims":9703,"ĠTurks":9704,"Ġprecise":9705,"Ġscourge":9706,"Ġchivalry":9707,"Ġappellant":9708,"Ġimmediately":9709,"ĠJerusale":9710,"ĠJuno":9711,"Ġconspiracy":9712,"Ġchafed":9713,"Ġsuppliant":9714,"Ġinfringe":9715,"Ġinfirmity":9716,"Ġminstrels":9717,"Ġdistinguish":9718,"Ġmalignant":9719,"Ġargosy":9720,"scaped":9721,"Pursuivant":9722,"Ġeloquence":9723,"BLUNT":9724,"Breathe":9725,"Children":9726,"EARL":9727,"FRANCIS":9728,"Glad":9729,"Hostess":9730,"Juliet":9731,"Merely":9732,"Perchance":9733,"Senators":9734,"Souls":9735,"Stop":9736,"Tongue":9737,"creature":9738,"corner":9739,"danger":9740,"igeia":9741,"makers":9742,"ozine":9743,"Ġtumult":9744,"Ġsurname":9745,"Ġbustle":9746,"Ġbauble":9747,"Ġbashful":9748,"Ġfuture":9749,"Ġnineteen":9750,"Ġlazy":9751,"Ġthreefold":9752,"Ġpoorest":9753,"Ġgirls":9754,"athaniel":9755,"Ġsteterat":9756,"Ġstratagems":9757,"Ġkennel":9758,"ascivious":9759,"Ġseparated":9760,"Ġsulphur":9761,"Ġanguish":9762,"ĠCastle":9763,"ĠRagozine":9764,"Ġviolet":9765,"Ġshepherds":9766,"ĠLudlow":9767,"ĠSixth":9768,"ĠSebastian":9769,"ĠSALISBURY":9770,"ĠBristol":9771,"ĠBrandon":9772,"Ġunawares":9773,"Ġunaccustom":9774,"ĠHallowmas":9775,"ĠAbhorson":9776,"Ġsomebody":9777,"Ġadulteress":9778,"ĠDelphos":9779,"Ġsubscribe":9780,"ĠMontgomery":9781,"Ġenterprise":9782,"ĠStafford":9783,"Ġobdurate":9784,"Ġmathematics":9785,"ĠWestminster":9786,"ĠJerusalem":9787,"'m":9788,"'ve":9789,"Aim":9790,"Ant":9791,"Ariel":9792,"Bu":9793,"Bea":9794,"Bare":9795,"Been":9796,"Base":9797,"Bianca":9798,"Boot":9799,"Bishop":9800,"Bushy":9801,"Brief":9802,"Cor":9803,"Cur":9804,"Chan":9805,"CARD":9806,"Crown":9807,"Cull":9808,"Certain":9809,"Coun":9810,"Cambio":9811,"Cuts":9812,"Captain":9813,"Dre":9814,"Day":9815,"Dra":9816,"Done":9817,"Dry":9818,"Dig":9819,"Del":9820,"Dull":9821,"Deep":9822,"Dorset":9823,"During":9824,"EAS":9825,"Emb":9826,"Earth":9827,"Fan":9828,"Four":9829,"Fam":9830,"Fast":9831,"Fare":9832,"Further":9833,"Gro":9834,"Gave":9835,"Gremio":9836,"Grim":9837,"Grief":9838,"Him":9839,"Hea":9840,"HEY":9841,"Holl":9842,"Honour":9843,"Hover":9844,"Honest":9845,"Half":9846,"Iron":9847,"Joy":9848,"Jove":9849,"John":9850,"Killing":9851,"Le":9852,"Lim":9853,"Lau":9854,"List":9855,"Learn":9856,"Laid":9857,"Lift":9858,"Lament":9859,"Lascivious":9860,"Mond":9861,"Meet":9862,"Merc":9863,"Matter":9864,"Mont":9865,"Mars":9866,"Maid":9867,"Mortal":9868,"Menenius":9869,"New":9870,"Need":9871,"Nature":9872,"Pe":9873,"Po":9874,"Pom":9875,"Ple":9876,"Pri":9877,"Pra":9878,"Past":9879,"Pity":9880,"Pass":9881,"Pret":9882,"Padua":9883,"Pisa":9884,"Prick":9885,"Ra":9886,"Rec":9887,"Rise":9888,"Rage":9889,"RIST":9890,"Sk":9891,"Sl":9892,"Sn":9893,"Sed":9894,"Sith":9895,"Sher":9896,"Sea":9897,"Saint":9898,"Sister":9899,"Spl":9900,"Sham":9901,"Suff":9902,"Sorry":9903,"Safe":9904,"Silence":9905,"Simois":9906,"Ty":9907,"Tor":9908,"Thi":9909,"Tear":9910,"Tend":9911,"Tick":9912,"Tears":9913,"Taking":9914,"Tread":9915,"Troth":9916,"Taste":9917,"TIT":9918,"Temper":9919,"Tribunes":9920,"Us":9921,"Vis":9922,"VEL":9923,"Vince":9924,"Vile":9925,"Verona":9926,"Wear":9927,"Wind":9928,"Wish":9929,"Wise":9930,"Wrong":9931,"Words":9932,"Wrench":9933,"York":9934,"ah":9935,"avy":9936,"acheth":9937,"avoury":9938,"bu":9939,"bet":9940,"bion":9941,"bout":9942,"both":9943,"bound":9944,"been":9945,"bew":9946,"bary":9947,"bring":9948,"brows":9949,"bawd":9950,"bishop":9951,"cr":9952,"cre":9953,"cer":9954,"cke":9955,"crow":9956,"cum":9957,"cold":9958,"cass":9959,"cause":9960,"cup":9961,"cures":9962,"cover":9963,"cote":9964,"cerity":9965,"did":9966,"dam":9967,"die":9968,"del":9969,"dges":9970,"dying":9971,"dares":9972,"ev":9973,"ece":9974,"even":9975,"ection":9976,"fes":9977,"fear":9978,"fast":9979,"five":9980,"fond":9981,"fig":9982,"fire":9983,"face":9984,"fied":9985,"fool":9986,"fair":9987,"finger":9988,"false":9989,"front":9990,"gent":9991,"gess":9992,"god":9993,"gger":9994,"gier":9995,"gments":9996,"gentleman":9997,"gging":9998,"goose":9999,"hot":10000,"home":10001,"hum":10002,"hings":10003,"hunt":10004,"hours":10005,"hrew":10006,"horses":10007,"honest":10008,"ii":10009,"ipher":10010,"iency":10011,"iercing":10012,"journ":10013,"jurious":10014,"known":10015,"knew":10016,"kfulness":10017,"lore":10018,"lant":10019,"lady":10020,"lings":10021,"lars":10022,"mor":10023,"mend":10024,"mother":10025,"mod":10026,"mple":10027,"mock":10028,"mark":10029,"music":10030,"mmer":10031,"mouth":10032,"motion":10033,"mitted":10034,"masters":10035,"mercy":10036,"maker":10037,"nz":10038,"nit":10039,"non":10040,"ned":10041,"nard":10042,"nity":10043,"nable":10044,"nounce":10045,"oan":10046,"oil":10047,"oise":10048,"ogy":10049,"pit":10050,"pan":10051,"pill":10052,"pur":10053,"pore":10054,"pate":10055,"purse":10056,"power":10057,"pile":10058,"position":10059,"pointed":10060,"prison":10061,"pipe":10062,"persu":10063,"rot":10064,"rine":10065,"round":10066,"rite":10067,"ruth":10068,"rons":10069,"sm":10070,"sight":10071,"sound":10072,"suck":10073,"ssed":10074,"spect":10075,"said":10076,"silence":10077,"sky":10078,"simple":10079,"tre":10080,"tri":10081,"test":10082,"town":10083,"turn":10084,"tide":10085,"talk":10086,"tail":10087,"trust":10088,"teeth":10089,"truly":10090,"ux":10091,"uit":10092,"ugh":10093,"uct":10094,"uel":10095,"uance":10096,"uft":10097,"uities":10098,"ucal":10099,"ucing":10100,"uiced":10101,"vors":10102,"virt":10103,"vouch":10104,"vict":10105,"vial":10106,"vals":10107,"wore":10108,"wood":10109,"west":10110,"wall":10111,"wish":10112,"wag":10113,"wilt":10114,"walk":10115,"wonder":10116,"words":10117,"wooing":10118,"xy":10119,"yers":10120,"yves":10121,"years":10122,"youth":10123,"zes":10124,"zalo":10125,"Ġ:":10126,"Ġess":10127,"ĠThat":10128,"ĠUpon":10129,"Ġounce":10130,"ĠQu":10131,"Ġtar":10132,"Ġtesty":10133,"Ġtush":10134,"Ġtithe":10135,"Ġtires":10136,"Ġtaming":10137,"Ġtables":10138,"Ġtalks":10139,"Ġtabour":10140,"Ġthaw":10141,"Ġtuft":10142,"heer":10143,"hear":10144,"heir":10145,"heth":10146,"heres":10147,"heads":10148,"Ġaed":10149,"Ġaut":10150,"Ġaus":10151,"Ġache":10152,"Ġapes":10153,"Ġavail":10154,"Ġaqua":10155,"Ġavouch":10156,"ouched":10157,"ourest":10158,"Ġsce":10159,"Ġsout":10160,"Ġsci":10161,"Ġserving":10162,"Ġsip":10163,"Ġsainted":10164,"Ġsize":10165,"Ġmam":10166,"Ġmoth":10167,"Ġmol":10168,"Ġmaw":10169,"Ġmalm":10170,"Ġmatt":10171,"Ġmakest":10172,"Ġmature":10173,"Ġmusc":10174,"Ġmuddy":10175,"init":10176,"inst":10177,"inch":10178,"inent":10179,"inest":10180,"inand":10181,"inter":10182,"inant":10183,"inish":10184,"inence":10185,"into":10186,"inary":10187,"inning":10188,"inions":10189,"Ġwive":10190,"Ġwool":10191,"Ġwield":10192,"Ġwip":10193,"Ġwaded":10194,"reb":10195,"reck":10196,"requ":10197,"rection":10198,"recy":10199,"having":10200,"hapen":10201,"Ġbout":10202,"Ġbough":10203,"Ġbower":10204,"Ġbull":10205,"Ġbled":10206,"Ġbiss":10207,"Ġbits":10208,"Ġbitt":10209,"Ġbars":10210,"Ġbaked":10211,"Ġborough":10212,"Ġbias":10213,"Ġbunch":10214,"Ġbattery":10215,"isans":10216,"isheth":10217,"ora":10218,"oro":10219,"orst":10220,"orable":10221,"orks":10222,"orged":10223,"orcester":10224,"orpor":10225,"Ġfay":10226,"Ġfust":10227,"Ġfel":10228,"Ġfert":10229,"Ġfade":10230,"Ġfitt":10231,"Ġfours":10232,"Ġfined":10233,"Ġfume":10234,"Ġfurious":10235,"Ġfaded":10236,"Ġfishes":10237,"Ġfidd":10238,"Ġfuel":10239,"eral":10240,"erver":10241,"erth":10242,"erry":10243,"erick":10244,"erness":10245,"erbear":10246,"erately":10247,"erpast":10248,"erween":10249,"lled":10250,"itle":10251,"itter":10252,"itic":10253,"itied":10254,"itud":10255,"itary":10256,"itution":10257,"ittering":10258,"itzwater":10259,"onition":10260,"onesty":10261,"onzalo":10262,"Ġdul":10263,"Ġdart":10264,"Ġdive":10265,"Ġdau":10266,"Ġdall":10267,"Ġdough":10268,"Ġdates":10269,"Ġdirt":10270,"Ġdial":10271,"Ġdaunt":10272,"Ġdump":10273,"Ġdally":10274,"Ġdiff":10275,"Ġdawn":10276,"Ġdaff":10277,"Ġdarts":10278,"Ġdumps":10279,"Ġcu":10280,"Ġcod":10281,"Ġcel":10282,"Ġcoy":10283,"Ġcull":10284,"Ġcable":10285,"Ġcitizen":10286,"Ġcakes":10287,"Ġcured":10288,"Ġcats":10289,"Ġcures":10290,"Ġcuff":10291,"Ġcities":10292,"Ġcott":10293,"Ġcamp":10294,"Ġcater":10295,"Ġcrick":10296,"Ġcyp":10297,"Ġcipher":10298,"esnes":10299,"enel":10300,"enious":10301,"encounter":10302,"enances":10303,"Ġnim":10304,"Ġnation":10305,"Ġnurs":10306,"Ġnuts":10307,"Ġnavy":10308,"Ġla":10309,"Ġlure":10310,"Ġlime":10311,"Ġlag":10312,"Ġlave":10313,"Ġlatter":10314,"Ġlump":10315,"Ġlackey":10316,"Ġlitter":10317,"Ġyard":10318,"Ġthigh":10319,"Ġthrows":10320,"Ġthimble":10321,"Ġthorough":10322,"arr":10323,"arce":10324,"arri":10325,"arallel":10326,"arbary":10327,"Ġhy":10328,"Ġhound":10329,"Ġhild":10330,"Ġhides":10331,"Ġhoop":10332,"Ġhunts":10333,"Ġhyp":10334,"Ġhugg":10335,"Ġoil":10336,"Ġtot":10337,"Ġtore":10338,"Ġtokens":10339,"Ġps":10340,"Ġply":10341,"Ġpea":10342,"Ġpru":10343,"Ġpout":10344,"Ġpond":10345,"Ġpence":10346,"Ġpins":10347,"Ġpile":10348,"Ġpars":10349,"Ġponder":10350,"Ġpump":10351,"Ġpip":10352,"Ġpities":10353,"Ġpelting":10354,"Ġphra":10355,"hating":10356,"ĠImp":10357,"Ġhent":10358,"Ġhewn":10359,"Ġheated":10360,"Ġhearers":10361,"vex":10362,"vels":10363,"otent":10364,"otche":10365,"otions":10366,"otpan":10367,"stal":10368,"stain":10369,"stock":10370,"stones":10371,"strange":10372,"anied":10373,"anched":10374,"annib":10375,"omy":10376,"ominable":10377,"Ġgas":10378,"Ġgore":10379,"Ġgest":10380,"Ġgun":10381,"Ġglo":10382,"Ġgale":10383,"Ġgird":10384,"Ġgiv":10385,"Ġgees":10386,"Ġgames":10387,"Ġgazed":10388,"Ġgamb":10389,"Ġgilly":10390,"Ġgasp":10391,"Ġghast":10392,"Ġgyves":10393,"atal":10394,"attle":10395,"atisf":10396,"Ġbeck":10397,"Ġbeam":10398,"Ġbede":10399,"Ġbeards":10400,"Ġbeheaded":10401,"Ġbemo":10402,"seed":10403,"sever":10404,"seven":10405,"sembles":10406,"Ġinher":10407,"Ġinde":10408,"Ġinches":10409,"Ġinvest":10410,"Ġinex":10411,"Ġinforced":10412,"Ġinvoc":10413,"Ġinhum":10414,"cease":10415,"cember":10416,"Ġhal":10417,"Ġhay":10418,"Ġhack":10419,"Ġhagg":10420,"Ġhaunts":10421,"Ġhammer":10422,"lem":10423,"learn":10424,"aynard":10425,"ldst":10426,"irand":10427,"etry":10428,"ediness":10429,"edeem":10430,"utor":10431,"utish":10432,"utiful":10433,"utoly":10434,"Ġmeas":10435,"Ġmeek":10436,"imy":10437,"imer":10438,"imon":10439,"ithmet":10440,"Ġnothings":10441,"chion":10442,"church":10443,"chbishop":10444,"Ġfork":10445,"Ġforged":10446,"Ġforges":10447,"Ġforfend":10448,"Ġforfeits":10449,"keeping":10450,"Ġwean":10451,"Ġwealt":10452,"Ġweeks":10453,"ooch":10454,"oosing":10455,"Ġeaster":10456,"Ġeats":10457,"Ġepit":10458,"hers":10459,"herds":10460,"Ġwithholds":10461,"entation":10462,"Ġitch":10463,"add":10464,"ading":10465,"adies":10466,"adition":10467,"adders":10468,"rid":10469,"ripp":10470,"ride":10471,"rivener":10472,"Ġstam":10473,"Ġstif":10474,"Ġstake":10475,"Ġstings":10476,"Ġstee":10477,"Ġstuck":10478,"Ġstates":10479,"Ġstair":10480,"Ġstains":10481,"Ġstony":10482,"Ġstaves":10483,"Ġstumbling":10484,"Ġkitche":10485,"Ġhiss":10486,"ids":10487,"idity":10488,"ideth":10489,"idels":10490,"ashing":10491,"assed":10492,"asury":10493,"Ġreel":10494,"Ġreins":10495,"Ġreek":10496,"Ġrenew":10497,"Ġrevoke":10498,"Ġrenounce":10499,"Ġrehear":10500,"Ġresembles":10501,"lymp":10502,"ram":10503,"rain":10504,"rained":10505,"raught":10506,"ramed":10507,"racted":10508,"Ġliver":10509,"Ġlibr":10510,"Ġlicence":10511,"url":10512,"alian":10513,"alms":10514,"Ġsol":10515,"Ġsops":10516,"Ġsoever":10517,"Ġsoothing":10518,"Ġsoothe":10519,"Ġasks":10520,"Ġasunder":10521,"Ġdeem":10522,"Ġdeity":10523,"Ġdeign":10524,"rob":10525,"roses":10526,"roying":10527,"hic":10528,"hily":10529,"hips":10530,"oody":10531,"estim":10532,"Ġshaped":10533,"eaf":10534,"Ġdoers":10535,"Ġdoff":10536,"Ġwillow":10537,"amour":10538,"amine":10539,"Ġnodd":10540,"Ġnoisome":10541,"Ġnovice":10542,"usan":10543,"usband":10544,"uspect":10545,"ushed":10546,"andon":10547,"ifs":10548,"ifies":10549,"ificial":10550,"Ġseed":10551,"Ġseats":10552,"Ġseals":10553,"Ġseeds":10554,"Ġselves":10555,"genders":10556,"Threw":10557,"Thomas":10558,"Ġally":10559,"Ġallied":10560,"Ġsums":10561,"runk":10562,"thine":10563,"thread":10564,"tern":10565,"Ġlogs":10566,"Ġlosing":10567,"Ġlolling":10568,"Ġlogger":10569,"hankfulness":10570,"ellist":10571,"earing":10572,"Ġspies":10573,"Ġspran":10574,"Ġspray":10575,"Ġspright":10576,"Ġspawn":10577,"Ġsparing":10578,"Ġspacious":10579,"Ġsprung":10580,"iless":10581,"ilities":10582,"iliments":10583,"ĠCon":10584,"ĠCret":10585,"ĠCousin":10586,"ĠCarlisle":10587,"ĠCheer":10588,"romise":10589,"Ġnecks":10590,"Ġnephe":10591,"hod":10592,"hose":10593,"holesome":10594,"Ġknack":10595,"Ġknots":10596,"ĠRe":10597,"ĠRather":10598,"ĠRedeem":10599,"Ġvall":10600,"Ġvail":10601,"Ġvaunt":10602,"Ġvouchsafe":10603,"Ġvouches":10604,"Ġvizard":10605,"Ġvitae":10606,"ERKE":10607,"Ġshy":10608,"Ġshin":10609,"Ġshining":10610,"anting":10611,"Ġupholds":10612,"quer":10613,"ques":10614,"quent":10615,"quire":10616,"question":10617,"arting":10618,"aths":10619,"athy":10620,"onely":10621,"oneous":10622,"Ġprone":10623,"Ġpratest":10624,"Ġprank":10625,"Ġproro":10626,"Ġprattle":10627,"Ġcomfor":10628,"Ġmanors":10629,"Ġmansion":10630,"Whatever":10631,"ĠMake":10632,"ĠMost":10633,"ĠMort":10634,"ĠMON":10635,"ĠMamill":10636,"ĠMEAS":10637,"ĠMirand":10638,"ĠEre":10639,"ĠEthi":10640,"ĠExton":10641,"ĠEcho":10642,"Ġample":10643,"Ġamount":10644,"Ġampl":10645,"Ġambling":10646,"ics":10647,"icite":10648,"Ġconn":10649,"Ġcony":10650,"Ġconst":10651,"Ġconvenient":10652,"Ġcongeal":10653,"ieving":10654,"Ġblench":10655,"Ġbloss":10656,"Ġblushes":10657,"Ġblank":10658,"Ġblanks":10659,"venged":10660,"ĠGall":10661,"ĠGlou":10662,"ĠGrace":10663,"ĠGonzalo":10664,"Fors":10665,"Force":10666,"Forced":10667,"Fortune":10668,"Forswear":10669,"Ġsheer":10670,"Ġsheet":10671,"Ġsheath":10672,"ements":10673,"embra":10674,"emaker":10675,"embered":10676,"empore":10677,"arest":10678,"outham":10679,"aucas":10680,"Held":10681,"Heir":10682,"Helen":10683,"olate":10684,"olation":10685,"olution":10686,"olitan":10687,"ology":10688,"ĠLy":10689,"ĠLend":10690,"ĠLuke":10691,"ĠLiby":10692,"Ġhates":10693,"LOVEL":10694,"indeed":10695,"Ġthereon":10696,"Ġtherewithal":10697,"Ġcanon":10698,"Ġcancell":10699,"ephen":10700,"few":10701,"fered":10702,"ondam":10703,"ondrous":10704,"resolved":10705,"resseth":10706,"ateful":10707,"Ġhereof":10708,"Ġheretic":10709,"Ġloveth":10710,"Ġlovelier":10711,"Ġswan":10712,"Ġswept":10713,"Ġswarm":10714,"Ġbrood":10715,"Ġbrats":10716,"Ġbrutish":10717,"Ġbrooch":10718,"ppers":10719,"Ġorb":10720,"Ġorison":10721,"Ġorators":10722,"Ġorange":10723,"Ġoratory":10724,"allible":10725,"ĠSh":10726,"ĠSon":10727,"ĠSend":10728,"ĠSure":10729,"ĠSince":10730,"ĠSuff":10731,"ĠSigeia":10732,"ĠSusan":10733,"ĠSoutham":10734,"Ġusest":10735,"Ġusual":10736,"Ġusurps":10737,"ĠOlymp":10738,"ĠBest":10739,"ĠBarbary":10740,"ĠBaynard":10741,"ĠBERKE":10742,"Ġarrog":10743,"Ġarraign":10744,"ody":10745,"odes":10746,"odils":10747,"Ġlethar":10748,"Ġletting":10749,"Ġunable":10750,"Ġunfort":10751,"Ġunking":10752,"Ġunspeak":10753,"Ġunadvised":10754,"Ġungovern":10755,"Ġunpeople":10756,"Ġunhapp":10757,"Ġunquiet":10758,"Ġunhallow":10759,"Ġunsettled":10760,"igm":10761,"igs":10762,"igen":10763,"igate":10764,"igree":10765,"inkle":10766,"ĠHoo":10767,"ĠHence":10768,"ĠHouse":10769,"ĠHung":10770,"ĠHoll":10771,"ĠHang":10772,"ĠHacket":10773,"ĠHugh":10774,"orts":10775,"ortive":10776,"ortham":10777,"ĠVarri":10778,"Ask":10779,"Ascend":10780,"Assist":10781,"elier":10782,"Ġquaff":10783,"Ġquondam":10784,"Ġjay":10785,"Ġjars":10786,"Ġjaunt":10787,"Ġjades":10788,"Ġjog":10789,"reation":10790,"aketh":10791,"ounding":10792,"Ġgraver":10793,"Ġgrains":10794,"Ġgravity":10795,"Ġholl":10796,"Ġhoard":10797,"Ġhoping":10798,"Ġproves":10799,"Ġproli":10800,"Ġpropose":10801,"Ġproject":10802,"Ġprobation":10803,"Ġprolong":10804,"ĠPeace":10805,"ĠPotpan":10806,"Ġsaves":10807,"Ġsavours":10808,"Ġmadmen":10809,"umm":10810,"uming":10811,"umbly":10812,"ummon":10813,"Ġplight":10814,"Ġplough":10815,"Ġplots":10816,"Ġplume":10817,"Ġplagues":10818,"AUGH":10819,"peer":10820,"enced":10821,"ĠWith":10822,"ĠWood":10823,"ĠWhich":10824,"ĠWere":10825,"ĠWorcester":10826,"ists":10827,"isted":10828,"many":10829,"Ġencl":10830,"Ġencom":10831,"Ġencoun":10832,"Ġenvir":10833,"Ġensign":10834,"Ġensuing":10835,"Ġengenders":10836,"unction":10837,"uncle":10838,"Ġrar":10839,"Ġrat":10840,"Ġrite":10841,"Ġrounds":10842,"Ġrayed":10843,"Ġrhyme":10844,"Ġpoets":10845,"Ġpoetry":10846,"decess":10847,"deceiving":10848,"Ġoutside":10849,"pton":10850,"Ġfrivol":10851,"Ġhowling":10852,"ĠAre":10853,"ĠArt":10854,"ĠAbra":10855,"ĠAutoly":10856,"Ġhandled":10857,"ignation":10858,"Ġwhoever":10859,"Ġmarches":10860,"irer":10861,"harm":10862,"harp":10863,"Inst":10864,"Inter":10865,"Incl":10866,"Injurious":10867,"Inquire":10868,"ĠYe":10869,"ĠYorks":10870,"Ġdispose":10871,"Ġdisfig":10872,"Weep":10873,"Weigh":10874,"Weeping":10875,"wness":10876,"Ġheaved":10877,"Ġheaps":10878,"Ġhearken":10879,"Ġhearkens":10880,"ecess":10881,"Oft":10882,"Ġbloods":10883,"Ġabound":10884,"Ġabject":10885,"Ġabides":10886,"Ġabominable":10887,"Ġabandon":10888,"Ġabortive":10889,"Ġfoem":10890,"Ġfoison":10891,"Ġearls":10892,"Ġroe":10893,"Ġrobe":10894,"Ġroots":10895,"Ġroared":10896,"Ġrosemary":10897,"Ġexiled":10898,"Ġexamp":10899,"Ġexcels":10900,"eeting":10901,"Sold":10902,"Ġeyed":10903,"Ġwhereupon":10904,"agon":10905,"agion":10906,"agab":10907,"agued":10908,"Ġdeserving":10909,"Ġdesiring":10910,"Ġdesperation":10911,"avel":10912,"Ġgentlewomen":10913,"Howe":10914,"Ġriot":10915,"Ġrice":10916,"Ġrift":10917,"Ġrider":10918,"Ġribs":10919,"Ġricher":10920,"Ġribb":10921,"Ġrival":10922,"Ġrivals":10923,"Ġarts":10924,"Ġartificial":10925,"Whereby":10926,"Ġhonourably":10927,"Ġslower":10928,"Ġslumber":10929,"Ġslug":10930,"Ġslavish":10931,"Ġwarp":10932,"Ġfling":10933,"Ġflout":10934,"Ġflap":10935,"Ġflung":10936,"Ġflayed":10937,"urnish":10938,"Ġhastily":10939,"Ġtwin":10940,"Ġtwos":10941,"Ġtwigs":10942,"ĠTrust":10943,"ĠTiber":10944,"Ġbetake":10945,"berate":10946,"berries":10947,"Ġbreeder":10948,"Ġbreech":10949,"ccess":10950,"Behind":10951,"aph":10952,"apert":10953,"ighing":10954,"ĠKates":10955,"ĠKnow":10956,"Whoever":10957,"Ġmenace":10958,"Ġcouch":10959,"Ġcouched":10960,"astery":10961,"Ġpartisans":10962,"reech":10963,"please":10964,"pleasure":10965,"Ġadds":10966,"Ġcommune":10967,"Ġstanders":10968,"Ġstandards":10969,"Ġclout":10970,"Ġcloth":10971,"Ġclime":10972,"Ġcloy":10973,"Ġclos":10974,"Ġclip":10975,"Ġclang":10976,"Ġclapp":10977,"Ġclutch":10978,"Ġclubs":10979,"Ġclusters":10980,"Ġpredom":10981,"Ġprecept":10982,"Ġprecip":10983,"Ġpreposterous":10984,"Ġprenz":10985,"Ġpredecess":10986,"Ġsweeten":10987,"Ġsweeting":10988,"Ġpraying":10989,"Ġprayed":10990,"ĠDear":10991,"ĠDoth":10992,"ĠDost":10993,"ĠDown":10994,"ĠDick":10995,"ĠDukes":10996,"ĠDighton":10997,"oused":10998,"Ġperch":10999,"Ġperfid":11000,"Ġperchance":11001,"Ġperadventure":11002,"Ġperceives":11003,"Ġpertinent":11004,"ulled":11005,"Therein":11006,"Thereon":11007,"Thereof":11008,"Ġheadlong":11009,"Ġmeanest":11010,"liest":11011,"licts":11012,"rederick":11013,"Ġscale":11014,"Ġscared":11015,"Ġscathe":11016,"Ġscurvy":11017,"Ġpresag":11018,"Ġpreservation":11019,"ainties":11020,"gery":11021,"perly":11022,"Ġrag":11023,"Ġrav":11024,"Ġrapt":11025,"Ġraged":11026,"Ġrags":11027,"Ġraising":11028,"Ġrazed":11029,"thest":11030,"abs":11031,"aby":11032,"ablish":11033,"abouts":11034,"ĠFri":11035,"ĠFerd":11036,"ĠFollow":11037,"ĠFitzwater":11038,"Ġapple":11039,"Ġappeach":11040,"Ġcontain":11041,"Ġcontend":11042,"Ġcontains":11043,"Ġcontracted":11044,"Ġcontagion":11045,"Ġremnant":11046,"swoln":11047,"Ġuntaught":11048,"Ġuntainted":11049,"Ġunthankfulness":11050,"Ġgraceful":11051,"Ġgraceless":11052,"Ġbegn":11053,"Ġbegs":11054,"Ġeyesight":11055,"landers":11056,"Ġmaim":11057,"INAL":11058,"ĠMarquis":11059,"Ġchildhood":11060,"Letters":11061,"Shed":11062,"Ġreplen":11063,"Ġreproach":11064,"Ġreprehend":11065,"Ġwombs":11066,"wicked":11067,"Ġafire":11068,"Ġafresh":11069,"ledged":11070,"ĠJames":11071,"ĠJustice":11072,"Ġrung":11073,"Ġruff":11074,"Ġrubs":11075,"Ġrubb":11076,"Ġconsents":11077,"Ġconspire":11078,"Ġpeep":11079,"Ġleather":11080,"Ġleash":11081,"log":11082,"uckle":11083,"Ġharp":11084,"Ġresting":11085,"Ġrestless":11086,"ercharged":11087,"Ġenters":11088,"Ġentail":11089,"chest":11090,"chess":11091,"Ġsetter":11092,"Ġsetting":11093,"orship":11094,"intell":11095,"Ġbetters":11096,"rants":11097,"Ġwitless":11098,"Ġwitty":11099,"cloth":11100,"Ġsleeve":11101,"Ġsleeves":11102,"Ġrespite":11103,"Ġrescued":11104,"fty":11105,"ierced":11106,"Ġtribe":11107,"Ġtrident":11108,"Ġtrivial":11109,"Ġmoons":11110,"rets":11111,"onted":11112,"Ġgripe":11113,"Notice":11114,"Ġbestir":11115,"Ġbestrew":11116,"Ġaccent":11117,"Ġaccents":11118,"Ġaccustom":11119,"Ġfollower":11120,"uding":11121,"udge":11122,"Ġendless":11123,"Ġkindle":11124,"Ġkindest":11125,"Ġprig":11126,"Ġpurg":11127,"Ġpurity":11128,"Ġpurblind":11129,"Ġcompet":11130,"ertainties":11131,"Ġtwofold":11132,"Ġchaos":11133,"Provo":11134,"Procure":11135,"Prodig":11136,"Profess":11137,"Provided":11138,"Proportion":11139,"Profan":11140,"Ġguide":11141,"Ġguile":11142,"Ġguides":11143,"Sirs":11144,"Ġsubs":11145,"Ġsubmit":11146,"Ġsubstantial":11147,"raybe":11148,"Ġsmear":11149,"Ġsmack":11150,"Ġsmock":11151,"Ġtrack":11152,"Ġtrained":11153,"Ġtravel":11154,"Ġtrample":11155,"Ġdregs":11156,"Ġcounts":11157,"Ġcountenances":11158,"Ġfinding":11159,"twenty":11160,"Ġtreads":11161,"Ġtreasures":11162,"Ġtreasury":11163,"Ġhighly":11164,"Stabb":11165,"Ġseemed":11166,"Ġhusbandry":11167,"Ġrighteous":11168,"Ġbanns":11169,"Ġbrake":11170,"Ġbraving":11171,"Ġcheat":11172,"Ġcheques":11173,"Ġcharter":11174,"ĠCitizens":11175,"Ġbrick":11176,"Ġbriers":11177,"Ġbridle":11178,"Ġchants":11179,"Ġchannel":11180,"Ġlawless":11181,"Ġlawyers":11182,"Ġshowing":11183,"Ġconfine":11184,"Ġconfounds":11185,"Ġconfident":11186,"Ġconfisc":11187,"beit":11188,"beat":11189,"before":11190,"begu":11191,"begot":11192,"Ġcog":11193,"Ġcox":11194,"Ġcoin":11195,"Ġcoil":11196,"Ġcoven":11197,"Ġcovet":11198,"Ġcocke":11199,"Ġglance":11200,"Ġglittering":11201,"Ġimpute":11202,"Ġimposition":11203,"Ġimpreg":11204,"Ġimplore":11205,"Alla":11206,"Ġdoubly":11207,"Ġeverything":11208,"Ġmista":11209,"Ġpassages":11210,"Ġpassado":11211,"Ġlighted":11212,"Ġlightens":11213,"Doing":11214,"Dogs":11215,"Ġnativity":11216,"Ġthrongs":11217,"ĠMARCIUS":11218,"Ġpardoning":11219,"Ġbesp":11220,"Ġbeseeming":11221,"Ġbeshrew":11222,"Ġhappen":11223,"Ġdevout":11224,"Ġdevised":11225,"Ġdevoted":11226,"Ġjustices":11227,"Ġmisc":11228,"Ġmisled":11229,"Ġmisdeed":11230,"Ġmisadventure":11231,"Ġmisdoubt":11232,"ensible":11233,"Ġlasts":11234,"Ġlastly":11235,"Ġstately":11236,"bler":11237,"black":11238,"Ġmeets":11239,"Ġunderstood":11240,"Ġkills":11241,"Ġkilling":11242,"Ġcareer":11243,"Ġcarefully":11244,"Ourselves":11245,"Ġfollowed":11246,"days":11247,"Ġfarmer":11248,"Ġlessen":11249,"Ġlessons":11250,"Ġhitherward":11251,"irts":11252,"Ġshameful":11253,"Ġeyebrows":11254,"Ġfalter":11255,"Ġfalchion":11256,"Ġfoolery":11257,"Ġpatrim":11258,"Ġsunset":11259,"Ġanswering":11260,"Ġchin":11261,"Ġchoosing":11262,"Ġchurl":11263,"Unc":11264,"Unf":11265,"Unhappy":11266,"Unfold":11267,"Unsheathe":11268,"Answer":11269,"Anointed":11270,"Ġstriving":11271,"Ġstrikes":11272,"Ġstripling":11273,"Ġstrifes":11274,"ildly":11275,"Ġstreams":11276,"Ġhumours":11277,"Ġhumorous":11278,"Ġbelie":11279,"alties":11280,"Ġcourtship":11281,"Ġoverta":11282,"Ġoverboard":11283,"Ġbug":11284,"Ġbubble":11285,"Ġgrateful":11286,"Ġivy":11287,"Ġproveth":11288,"Ġplayers":11289,"Ġplayfellow":11290,"Ġsounding":11291,"Ġdrain":11292,"Ġinstinct":11293,"Ġinstigation":11294,"Ġretail":11295,"Ġthankings":11296,"Ġboil":11297,"holder":11298,"Ġvoid":11299,"Short":11300,"Ġevening":11301,"Ġcurb":11302,"Ġcurds":11303,"Ġcursing":11304,"Ġcurrish":11305,"Ġcurfew":11306,"pecting":11307,"play":11308,"plus":11309,"plight":11310,"plant":11311,"Ġmerciless":11312,"Ġwantons":11313,"Ġrevenues":11314,"Ġassay":11315,"Ġassign":11316,"Ġdoubts":11317,"Ġdoubtless":11318,"Ġtruths":11319,"Ġstrains":11320,"Ġdiscom":11321,"Ġdiscours":11322,"Ġdiscern":11323,"Almost":11324,"Att":11325,"Ġpromises":11326,"Ġpromotions":11327,"ittance":11328,"Ġcracks":11329,"Ġbeaver":11330,"Ġhangmen":11331,"Ġstrangers":11332,"Ġproudly":11333,"Ġdepends":11334,"Ġdeposing":11335,"Ġsecurity":11336,"Ġsecrecy":11337,"Twelve":11338,"compl":11339,"command":11340,"unto":11341,"Ġfreeze":11342,"Ġgreediness":11343,"POMPHEY":11344,"Ġservitor":11345,"Ġdenies":11346,"Ġdenier":11347,"Ġawaking":11348,"Ġawaken":11349,"Ġawaked":11350,"Ġmerits":11351,"Ġmerited":11352,"Ġhorseman":11353,"Herself":11354,"Herald":11355,"Ġwinning":11356,"Ġsupposes":11357,"Ġspoiled":11358,"remacy":11359,"remembered":11360,"Ġdrugs":11361,"Ġdrudge":11362,"Ġdefiance":11363,"Ġdefaced":11364,"Ġunclean":11365,"Looks":11366,"Wash":11367,"Ġaffable":11368,"Ġaffiance":11369,"Ġsinful":11370,"Ġsincerity":11371,"Ġmettle":11372,"Ġmethod":11373,"ringed":11374,"Ġmonastery":11375,"Ġgeneration":11376,"Ġgenerally":11377,"aculate":11378,"Ġsadd":11379,"Ġsaddle":11380,"Ġpurposed":11381,"Ġthroughout":11382,"ictment":11383,"mercies":11384,"Ġchoked":11385,"azz":11386,"ceeding":11387,"Ġplucking":11388,"shot":11389,"Ġlosses":11390,"noble":11391,"Ġcrystal":11392,"Ġentreats":11393,"Ġpersonally":11394,"White":11395,"Ġflying":11396,"Ġfasts":11397,"Ġfaster":11398,"Ġvisits":11399,"ĠLucy":11400,"Ġdispute":11401,"Ġremembering":11402,"Ġorders":11403,"Ġordered":11404,"Ġbolder":11405,"Ġnearness":11406,"Ġtrusted":11407,"Ġinstructed":11408,"Ġinstructions":11409,"without":11410,"Ġtouching":11411,"Ġfoundation":11412,"Ġrunn":11413,"Ġrunning":11414,"Ġrunagate":11415,"Ġwooer":11416,"Ġgrants":11417,"Ġinfidels":11418,"Ġinfallible":11419,"Became":11420,"Spur":11421,"Spread":11422,"gued":11423,"Ġwearisome":11424,"Ġreadiest":11425,"Ġdelivers":11426,"Ġdeliberate":11427,"Ġspeeds":11428,"Ġquarters":11429,"ĠNeap":11430,"ĠNathaniel":11431,"Ġmocks":11432,"Ġmocked":11433,"Ġfurlongs":11434,"Ġfurthest":11435,"Ġforemost":11436,"Ġforego":11437,"Ġforewarn":11438,"Ġfields":11439,"Ġcarver":11440,"Ġcarved":11441,"Ġcarters":11442,"Ġcarriage":11443,"Ġcarbon":11444,"Ġcarcass":11445,"Ġposture":11446,"Ġpostern":11447,"Ġjudged":11448,"Compare":11449,"Cominius":11450,"Ġparle":11451,"Ġparks":11452,"Ġparley":11453,"Ġparcels":11454,"Ġparcel":11455,"Ġparallel":11456,"Ġparagon":11457,"Ġbeholders":11458,"Ġincaged":11459,"Ġincorpor":11460,"Ġrecreation":11461,"Ġdelicious":11462,"Ġdelivered":11463,"Ġworking":11464,"Ġtenor":11465,"Ġbounds":11466,"Ġboundless":11467,"Ġdamask":11468,"Ġopenly":11469,"ĠCapel":11470,"Ġharmful":11471,"Ġguiltiness":11472,"Ġattendance":11473,"Ġattendants":11474,"OPHER":11475,"changea":11476,"Ġvein":11477,"Ġague":11478,"Ġwatching":11479,"Ġfeels":11480,"Ġdishonest":11481,"Ġdistance":11482,"Ġdistaff":11483,"Ġdistrib":11484,"Ġdistilled":11485,"Ġdistinctly":11486,"Ġtribes":11487,"Ġstrengths":11488,"Seeing":11489,"Ġacted":11490,"Ġcoral":11491,"Ġcorpse":11492,"Ġcormor":11493,"Ġstirr":11494,"Untimely":11495,"sub":11496,"supp":11497,"suffic":11498,"Ġsinging":11499,"Ġsingled":11500,"Ġpieced":11501,"Ġcloset":11502,"Ġentering":11503,"Ġbravely":11504,"neither":11505,"vouring":11506,"Ġtype":11507,"Ġwaist":11508,"Ġwaving":11509,"Ġwaft":11510,"Ġfitly":11511,"Ġfitness":11512,"Ġgarter":11513,"Ġgarish":11514,"Ġgarment":11515,"etchy":11516,"Ġweaker":11517,"Ġjests":11518,"Ġplainness":11519,"ĠThree":11520,"Ġskies":11521,"Ġskull":11522,"Ġskins":11523,"Ġsignified":11524,"Ġwiser":11525,"Ġcasting":11526,"Ġforgetfulness":11527,"Ġregent":11528,"Ġvenuto":11529,"Ġrichly":11530,"Ġwedlock":11531,"Ġdugs":11532,"Ġduellist":11533,"Ġmoveable":11534,"Ġbattlements":11535,"sheet":11536,"sheep":11537,"Ġtape":11538,"ouncing":11539,"Ġdirected":11540,"Ġladder":11541,"Ġpaying":11542,"Ġpayment":11543,"Ġgroats":11544,"Ġreduce":11545,"Ġredoubted":11546,"Ġsoftly":11547,"Ġblacker":11548,"Ġextir":11549,"Ġextol":11550,"Ġtroubles":11551,"Ġbeginning":11552,"Ġquarrels":11553,"Requ":11554,"Reward":11555,"Receive":11556,"Rebell":11557,"Ġbarber":11558,"Ġbarne":11559,"Ġdrove":11560,"Ġcrutches":11561,"Ġcrotche":11562,"Ġthrives":11563,"Ġthriving":11564,"arism":11565,"Ġworthless":11566,"Ġprivily":11567,"Ġdangerously":11568,"Ġsighing":11569,"Ġbleared":11570,"Ġinterr":11571,"Ġinterior":11572,"Ġinterpretation":11573,"Ġinterchangea":11574,"Ġundes":11575,"Ġevidence":11576,"Ġvictor":11577,"Ġvictors":11578,"ĠSirrah":11579,"ĠVolsce":11580,"Ġflattery":11581,"Ġdreaded":11582,"Ġdenying":11583,"ipodes":11584,"Ġestablish":11585,"Ġmalady":11586,"Ġmalcontent":11587,"Ġmalapert":11588,"Ġmortals":11589,"Ġbabies":11590,"Ġfraught":11591,"Ġfrailty":11592,"Ġhurry":11593,"Ġhurts":11594,"righted":11595,"spring":11596,"urally":11597,"Ġcrosses":11598,"Ġcrossing":11599,"Ġcowards":11600,"Ġlimed":11601,"Ġpenet":11602,"Ġpenalty":11603,"Ġprotection":11604,"Ġkingdoms":11605,"Ġleading":11606,"Ġlamented":11607,"Ġsuccesses":11608,"Ġsuccessful":11609,"Holding":11610,"spero":11611,"Ġbroil":11612,"Ġbroach":11613,"Ġcleave":11614,"Ġowl":11615,"Ġowed":11616,"Ġowest":11617,"Ġopport":11618,"Ġoppose":11619,"Ġoppress":11620,"Ġgalled":11621,"Ġgallows":11622,"Ġgallops":11623,"Ġforwardness":11624,"Ġangle":11625,"Ġviolation":11626,"antages":11627,"Ġprincip":11628,"Ġapprove":11629,"Ġcomplots":11630,"Ġcompliment":11631,"Ġcomplaints":11632,"butt":11633,"Ġsurfeits":11634,"Ġsurcease":11635,"Ġsurplus":11636,"Ġdestined":11637,"Ġdestroying":11638,"Ġscarf":11639,"Ġscarr":11640,"Ġdeparting":11641,"Ġdeparted":11642,"Ġpossessions":11643,"Conceiving":11644,"Convenient":11645,"Ġbene":11646,"Ġbasely":11647,"Ġbirthright":11648,"Ġfilling":11649,"Ġlabours":11650,"Ġlaboured":11651,"Ġformal":11652,"Ġformally":11653,"Ġeasier":11654,"Ġperformed":11655,"Ġwrites":11656,"Stays":11657,"Abate":11658,"Abbot":11659,"ggar":11660,"ggest":11661,"Ġuttered":11662,"Ġmilder":11663,"Ġwilderness":11664,"reading":11665,"Ġcape":11666,"Ġcavil":11667,"semble":11668,"Ġinsur":11669,"Ġinside":11670,"Ġinsatiate":11671,"Ġinsensible":11672,"Ġshades":11673,"ĠStill":11674,"ĠStephen":11675,"Ġquietly":11676,"Ġquietness":11677,"Ġproceeds":11678,"Ġproceeding":11679,"Ġadmire":11680,"Ġadmits":11681,"Ġadmired":11682,"Ġadmiring":11683,"Ġadmonition":11684,"Margaret":11685,"Ġapish":11686,"Ġapology":11687,"Ġshipp":11688,"Ġshift":11689,"Ġshoot":11690,"Ġmedd":11691,"Ġmedlar":11692,"Ġwalking":11693,"Ġfamed":11694,"Ġhapless":11695,"Ġforswore":11696,"Ġnobody":11697,"Ġfavourites":11698,"Ġblowing":11699,"Ġuncrown":11700,"Ġunconstant":11701,"Ġunknit":11702,"ighbour":11703,"Ġleisurely":11704,"Ġforbids":11705,"counterfeit":11706,"Intends":11707,"Intended":11708,"Ġsorted":11709,"Ġcrupper":11710,"Ġlances":11711,"Ġlisten":11712,"Ġstories":11713,"Ġrefer":11714,"Ġrefresh":11715,"Ġreflect":11716,"Ġseconds":11717,"Ġtemporiz":11718,"Dead":11719,"Enjoy":11720,"Enforced":11721,"Pronounce":11722,"Princes":11723,"Subject":11724,"Success":11725,"Suggest":11726,"Ġtenth":11727,"Ġmutual":11728,"Ġmutually":11729,"Ġmutinies":11730,"Ġmutton":11731,"Ġfinely":11732,"Ġdrowned":11733,"Ġlowest":11734,"Ġpettic":11735,"Ġbended":11736,"Ġbells":11737,"Ġindu":11738,"Ġindust":11739,"Ġinduced":11740,"Ġindignation":11741,"Ġindictment":11742,"Ġstealing":11743,"Ġstealth":11744,"Ġconquered":11745,"Ġproclaimed":11746,"Ġexcused":11747,"Ġexcuses":11748,"Ġdoubled":11749,"Ġdoublets":11750,"Ġwisdoms":11751,"Below":11752,"denly":11753,"Ġmounted":11754,"Ġmountains":11755,"Ġfeign":11756,"Ġfeigned":11757,"Ġcaptives":11758,"Ġpunk":11759,"Ġpuny":11760,"Ġpunished":11761,"Ġhairs":11762,"Ġstudying":11763,"Ġmannerly":11764,"Ġenjoying":11765,"Ġrange":11766,"Ġranks":11767,"Ġabroach":11768,"Ġcontrar":11769,"Ġcontinued":11770,"Ġcontinuance":11771,"Ġdespairing":11772,"Ġstrucken":11773,"Dispose":11774,"Dismiss":11775,"eys":11776,"Ġteaching":11777,"Ġsimpl":11778,"Ġcorns":11779,"Ġcredent":11780,"Ġcredulous":11781,"Ġunprepare":11782,"Ġunpitied":11783,"Ġunparallel":11784,"Ġunwise":11785,"Ġunwieldy":11786,"Ġunwholesome":11787,"Ġunwonted":11788,"Ġprovince":11789,"Ġprovision":11790,"Ġaccounted":11791,"Ġpriests":11792,"Ġguards":11793,"Ġcruelty":11794,"falling":11795,"hearts":11796,"Ġwailing":11797,"Ġdwellest":11798,"Ġpacking":11799,"Ġpackthread":11800,"Ġgavest":11801,"Ġgentleness":11802,"Ġbutcheries":11803,"Ġunsk":11804,"Ġunsway":11805,"Ġunsuspect":11806,"Ġenvying":11807,"Ġridges":11808,"Ġadders":11809,"Ġaddition":11810,"Ġextremities":11811,"Ġbenefactors":11812,"Ġlaughing":11813,"Negle":11814,"Neighbours":11815,"grand":11816,"Ġverily":11817,"Ġveriest":11818,"Ġverified":11819,"Ġverdict":11820,"Ġwreak":11821,"Ġwreaths":11822,"Ġfirmament":11823,"Ġholes":11824,"velling":11825,"Ġincline":11826,"Ġformerly":11827,"Ġeased":11828,"Ġrelent":11829,"Ġdealings":11830,"Ġsportful":11831,"Ġconveyance":11832,"ĠBarnet":11833,"Ġarrive":11834,"Ġunbruised":11835,"ĠHerbert":11836,"ĠHerald":11837,"Ġrooted":11838,"Ġimages":11839,"Ġimagined":11840,"Ġsmoke":11841,"Ġfellowship":11842,"Ġcovering":11843,"Ġacquit":11844,"Ġschoolboy":11845,"ALL":11846,"Black":11847,"Bliss":11848,"Blush":11849,"Bloody":11850,"Desire":11851,"Desires":11852,"Deserved":11853,"Deserve":11854,"Deserves":11855,"Despite":11856,"Exeter":11857,"Examine":11858,"Tutor":11859,"afternoon":11860,"conf":11861,"Ġbaits":11862,"Ġbaited":11863,"Ġdullest":11864,"Ġstables":11865,"ĠAlack":11866,"ĠAlbion":11867,"therea":11868,"therein":11869,"Ġimports":11870,"Ġimportance":11871,"Ġimportuned":11872,"Ado":11873,"Henceforth":11874,"Henceforward":11875,"moreland":11876,"Ġeduc":11877,"Ġfingering":11878,"Ġcustomary":11879,"Ġgrossly":11880,"Ġinformation":11881,"Ġelected":11882,"Ġeagles":11883,"Ġdecreed":11884,"Ġallowing":11885,"Ġallowed":11886,"Ġnecessaries":11887,"Ġknights":11888,"Ġshrill":11889,"Ġsailor":11890,"Ġrobbed":11891,"Ġrobbery":11892,"Ġrocky":11893,"Ġcommendable":11894,"Ġrudely":11895,"Ġassisted":11896,"Ġdelightful":11897,"Ġlanguish":11898,"Ġcircled":11899,"CHRIST":11900,"Resign":11901,"Resolved":11902,"Resolve":11903,"Turns":11904,"active":11905,"dyed":11906,"Ġesp":11907,"Ġespecially":11908,"Ġdurance":11909,"Ġcreep":11910,"Ġcreeping":11911,"Ġnumbering":11912,"Ġlargess":11913,"Ġhidden":11914,"riously":11915,"Ġstarved":11916,"ashion":11917,"Ġdews":11918,"Ġsharper":11919,"Ġconjur":11920,"Ġconjured":11921,"ĠSicils":11922,"Ġchiefly":11923,"Ġconducted":11924,"Ġprotectors":11925,"Ġpublish":11926,"Perform":11927,"appearing":11928,"flies":11929,"flayed":11930,"proof":11931,"ubbering":11932,"Ġerr":11933,"Ġirks":11934,"Ġtortures":11935,"Ġtortoise":11936,"Ġbonds":11937,"Ġdetain":11938,"Ġcambric":11939,"Ġtopmast":11940,"Ġinfectious":11941,"Ġequally":11942,"Ġstored":11943,"Ġsupremacy":11944,"running":11945,"Ġshuts":11946,"Ġsways":11947,"Ġbrooks":11948,"Ġrashly":11949,"Ġrashness":11950,"Ġdisdains":11951,"Ġexcellence":11952,"Ġtransform":11953,"Ġaffects":11954,"Ġaffecting":11955,"Ġaccusers":11956,"Ġpursuing":11957,"Ġpursuivant":11958,"Ġchairs":11959,"Ġdispositions":11960,"Ġconquerors":11961,"Ġspecially":11962,"Knowing":11963,"Prefix":11964,"Retire":11965,"Scorn":11966,"Shake":11967,"large":11968,"parable":11969,"weighs":11970,"Ġtutors":11971,"Ġmurderers":11972,"Ġwoodcock":11973,"Ġballads":11974,"Ġbuds":11975,"Ġfleece":11976,"Ġcensured":11977,"Ġcensures":11978,"Ġcupbearer":11979,"Ġpurest":11980,"Ġbewitch":11981,"Ġmended":11982,"Ġweighing":11983,"queath":11984,"olerable":11985,"Ġargues":11986,"ĠProvost":11987,"ĠProspero":11988,"Ġdissolute":11989,"Ġdissolved":11990,"Ġdissentious":11991,"Ġdissolve":11992,"Ġdissension":11993,"Ġdissolution":11994,"Ġexpected":11995,"Ġadopted":11996,"ĠFlav":11997,"Ġcourageous":11998,"Ġpersuasion":11999,"Ġacceptance":12000,"Ġgroaning":12001,"Ġsolemnly":12002,"bearing":12003,"valued":12004,"Ġtestify":12005,"Ġmagn":12006,"Ġcockle":12007,"Ġcockatri":12008,"Ġhostile":12009,"Ġhunting":12010,"Ġobserve":12011,"Ġpolitic":12012,"Ġrepeat":12013,"ĠCanst":12014,"Ġshuns":12015,"Ġconcern":12016,"Ġqualified":12017,"Ġadversary":12018,"Ġcloven":12019,"Ġcloister":12020,"Ġwhores":12021,"Ġimmod":12022,"Ġpurchased":12023,"Ġimpossib":12024,"Ġmaidenheads":12025,"Ġtemperance":12026,"Ġincreaseth":12027,"Ġcomplaining":12028,"Ġearnestness":12029,"Consort":12030,"Longer":12031,"bridge":12032,"kerchief":12033,"lawfully":12034,"pulous":12035,"ucement":12036,"Ġsquire":12037,"Ġsquared":12038,"Ġsouthward":12039,"Ġmillion":12040,"Ġmillstones":12041,"regia":12042,"Ġfigured":12043,"Ġfurnished":12044,"Ġdigg":12045,"Ġchattering":12046,"Ġparentage":12047,"Ġbefell":12048,"Ġmeantime":12049,"Ġrecomfort":12050,"Ġwillingness":12051,"Ġcombine":12052,"Ġcombined":12053,"Ġswells":12054,"ĠBehold":12055,"Ġprovoke":12056,"ĠAdrian":12057,"Ġconsidering":12058,"Ġcompanions":12059,"Strive":12060,"Ġbrawls":12061,"Ġbuilds":12062,"Ġbuildeth":12063,"Ġintelligen":12064,"Ġrecorded":12065,"Ġwaiting":12066,"Ġgarlands":12067,"Ġforbearance":12068,"Ġopposers":12069,"Ġfamously":12070,"Supposing":12071,"ĠConspirators":12072,"Account":12073,"Keeps":12074,"desire":12075,"shalt":12076,"shaped":12077,"wearied":12078,"Ġingrateful":12079,"Ġingratitude":12080,"Ġingenious":12081,"Ġaptly":12082,"Ġsalve":12083,"Ġsalutation":12084,"Ġmultip":12085,"Ġmultitud":12086,"Ġfunctions":12087,"Ġfuneral":12088,"Ġdrive":12089,"Ġpotent":12090,"Ġpotency":12091,"Ġinquired":12092,"Ġmelting":12093,"Ġmelted":12094,"Ġforsaken":12095,"Ġstinging":12096,"Ġstoutness":12097,"ĠLeicester":12098,"Softly":12099,"ĠDeucal":12100,"ĠDecember":12101,"Ġwrinkle":12102,"Ġwrinkles":12103,"Ġrusty":12104,"Ġcharacters":12105,"Ġsmells":12106,"Ġbracelet":12107,"Ġsecurely":12108,"Ġafflicted":12109,"shoulder":12110,"Ġagreeing":12111,"Ġcorrect":12112,"Ġprettily":12113,"Ġshields":12114,"Ġrejoicing":12115,"Condition":12116,"Draws":12117,"Flower":12118,"Flatter":12119,"Immediate":12120,"Quit":12121,"Rivers":12122,"Sometimes":12123,"access":12124,"bodied":12125,"faith":12126,"footed":12127,"longeth":12128,"monger":12129,"news":12130,"thank":12131,"warm":12132,"Ġmiracle":12133,"Ġwidower":12134,"Ġwestward":12135,"hands":12136,"Ġbuckler":12137,"Ġdifferent":12138,"Ġhorns":12139,"Ġgrudge":12140,"Ġsteer":12141,"Ġsticks":12142,"Ġreceiving":12143,"Ġdeclined":12144,"Ġdeclines":12145,"Ġdeclining":12146,"Ġshamest":12147,"Ġshamef":12148,"Ġsucceeding":12149,"Ġsucceeders":12150,"Ġfactor":12151,"Ġfawns":12152,"Ġneglected":12153,"Ġvariable":12154,"Ġvillanous":12155,"Ġvolumes":12156,"Ġshrieks":12157,"Ġmanifested":12158,"Ġunwillingly":12159,"ĠVenus":12160,"ĠTarquin":12161,"Ġscandalous":12162,"Ġcarelessly":12163,"Ġgratify":12164,"Ġgratulate":12165,"Ġcurtains":12166,"Ġcrafts":12167,"Ġprophetess":12168,"Ġsubstitutes":12169,"Ġrevolted":12170,"Ġconcealment":12171,"Awake":12172,"Courageous":12173,"URE":12174,"cestershire":12175,"pretty":12176,"tender":12177,"Ġtouches":12178,"Ġtrodden":12179,"Ġtigers":12180,"Ġtails":12181,"Ġmethoughts":12182,"Ġbonnet":12183,"Ġfixed":12184,"Ġdateless":12185,"Ġnettles":12186,"Ġnicely":12187,"Ġlucky":12188,"Ġluckless":12189,"Ġpedigree":12190,"Ġpageant":12191,"celsa":12192,"Ġstomachs":12193,"Ġspectators":12194,"ĠGreek":12195,"Ġornament":12196,"ĠScroop":12197,"Ġarrested":12198,"Ġunstain":12199,"Ġunfelt":12200,"Ġwormwood":12201,"Ġengine":12202,"Ġdisgracious":12203,"Ġbeguile":12204,"Ġbegetting":12205,"Ġcollected":12206,"Ġdepending":12207,"Ġmonarchy":12208,"Ġsufficiency":12209,"Ġestimate":12210,"Ġsacrificed":12211,"Plays":12212,"Ġrankle":12213,"Ġcoverture":12214,"Ġapprehends":12215,"Ġmoralize":12216,"Adding":12217,"Engage":12218,"Falsely":12219,"Namely":12220,"Wrath":12221,"conscience":12222,"friend":12223,"prayers":12224,"winged":12225,"Ġtackle":12226,"Ġaudience":12227,"Ġaudible":12228,"Ġsedition":12229,"Ġsedges":12230,"Ġsessions":12231,"Ġmourner":12232,"Ġmoulded":12233,"Ġbruising":12234,"Ġbolt":12235,"Ġbolted":12236,"Ġfinest":12237,"Ġfinish":12238,"Ġfeverous":12239,"Ġlouring":12240,"Ġpillow":12241,"Ġpalmers":12242,"ĠIniquity":12243,"Ġgapes":12244,"Ġinvite":12245,"Ġdemi":12246,"Ġdemesnes":12247,"Ġanchors":12248,"Ġshrug":12249,"ĠEmperor":12250,"Ġshelves":12251,"Ġgossip":12252,"Ġhoarse":12253,"ĠWelshman":12254,"Ġencamp":12255,"Ġdescant":12256,"Ġdescried":12257,"Ġslippery":12258,"Ġpreferment":12259,"perienced":12260,"Ġlectures":12261,"Ġtraveller":12262,"Ġtrencher":12263,"Ġcopy":12264,"Ġcopest":12265,"Ġattainder":12266,"Ġprompts":12267,"Ġcramps":12268,"Ġdivorced":12269,"Ġembraces":12270,"Ġinsolent":12271,"Ġobsequious":12272,"Ġtestimon":12273,"Ġneglecting":12274,"Ġheralds":12275,"Accept":12276,"Caesar":12277,"Divine":12278,"Gramercies":12279,"Relent":12280,"besides":12281,"locks":12282,"missive":12283,"obst":12284,"sentenced":12285,"tino":12286,"tongues":12287,"tongued":12288,"whom":12289,"Ġmasks":12290,"Ġbottle":12291,"Ġbottled":12292,"Ġfrequent":12293,"Ġfountain":12294,"Ġdoting":12295,"Ġdotard":12296,"enedicite":12297,"Ġlingering":12298,"Ġthwack":12299,"Ġpanting":12300,"Ġpictures":12301,"Ġgusts":12302,"Ġstaggers":12303,"Ġrevived":12304,"Ġassembly":12305,"Ġvials":12306,"Ġunlikely":12307,"ĠWestmoreland":12308,"Ġalarum":12309,"Ġalarums":12310,"Ġexceeds":12311,"Ġclerk":12312,"Ġtrimm":12313,"Ġcontrive":12314,"Ġcontrived":12315,"Ġeverlastingly":12316,"Ġpeerless":12317,"Ġbestrid":12318,"Ġbestride":12319,"Ġaccompanied":12320,"Ġcompounded":12321,"Ġchampions":12322,"Ġbrands":12323,"Ġconfederates":12324,"Ġmischiefs":12325,"Ġpatroness":12326,"Ġcrabbed":12327,"Ġdistraught":12328,"Ġcrimson":12329,"Ġinterrupted":12330,"Ġinsinuating":12331,"Ġunlucky":12332,"Ġmagistrates":12333,"Ġstewardship":12334,"Ġunwillingness":12335,"Ġsurprise":12336,"Ġfantastic":12337,"Affliction":12338,"Boldly":12339,"Endured":12340,"Present":12341,"Sicinius":12342,"Sicilia":12343,"burthen":12344,"court":12345,"country":12346,"countenance":12347,"judged":12348,"knock":12349,"malice":12350,"occup":12351,"occasion":12352,"opsa":12353,"phin":12354,"presently":12355,"points":12356,"speech":12357,"Ġireful":12358,"Ġtumbled":12359,"Ġmuffle":12360,"Ġmuffled":12361,"Ġfetter":12362,"Ġfulfil":12363,"Ġdominions":12364,"Ġdedicate":12365,"Ġdieted":12366,"Ġcushion":12367,"Ġcushions":12368,"strains":12369,"Ġgazing":12370,"Ġgrumbling":12371,"Ġliquor":12372,"Ġliquid":12373,"Ġdefects":12374,"Ġdoctors":12375,"Ġdoctrine":12376,"Ġbutterfly":12377,"Ġsequel":12378,"Ġsuggested":12379,"thwart":12380,"thwack":12381,"Ġanswers":12382,"Ġanswered":12383,"Ġsparks":12384,"Ġnegligence":12385,"Ġnegligent":12386,"ĠRoger":12387,"ĠRobert":12388,"Ġviand":12389,"Ġviper":12390,"Ġamendment":12391,"ĠBeseech":12392,"ĠBesides":12393,"Ġarguing":12394,"Ġargued":12395,"Ġarbitrate":12396,"Ġgrafted":12397,"Ġprogress":12398,"ĠArgier":12399,"ĠArchbishop":12400,"Ġabstinence":12401,"Ġabode":12402,"Ġexactly":12403,"Ġexperienced":12404,"Ġriddle":12405,"Ġperdition":12406,"Ġperfume":12407,"Ġperfumed":12408,"Ġtradesmen":12409,"Ġscruple":12410,"Ġappointment":12411,"Ġchapel":12412,"Ġchests":12413,"Ġimpartial":12414,"Ġimpudent":12415,"Ġboatswain":12416,"Ġstraitly":12417,"Ġprofanation":12418,"Ġdishonours":12419,"Ġembassage":12420,"ĠChristophero":12421,"Ġadmiral":12422,"Ġindirectly":12423,"Ġfeatly":12424,"Ġcontradict":12425,"Ġcontradiction":12426,"Ġholiday":12427,"Ġholidame":12428,"Ġreligion":12429,"Ġreligious":12430,"ĠFlorent":12431,"ĠFlorence":12432,"Ġgreyhound":12433,"Ġgreyhounds":12434,"Ġsyllable":12435,"Ġsyllables":12436,"Ġsuperfluous":12437,"Ġsuperfluity":12438,"Ġdisobedience":12439,"Ġdisobedient":12440,"Ġsinews":12441,"Ġcuckolds":12442,"Bestride":12443,"Chide":12444,"Doubly":12445,"Drop":12446,"Eleven":12447,"Golden":12448,"Haply":12449,"Nightly":12450,"Pitchers":12451,"Saddle":12452,"Self":12453,"Slander":12454,"Trans":12455,"Tremble":12456,"often":12457,"silver":12458,"service":12459,"ville":12460,"winds":12461,"ĠĠĊ":12462,"Ġtilth":12463,"Ġaugment":12464,"Ġausterity":12465,"Ġmotive":12466,"Ġmingle":12467,"Ġmassacre":12468,"Ġwrapt":12469,"Ġbaleful":12470,"Ġbounteous":12471,"Ġcedar":12472,"Ġcasque":12473,"Ġcelebr":12474,"Ġlechery":12475,"Ġthrall":12476,"Ġthreshold":12477,"Ġostentation":12478,"Ġocean":12479,"Ġpheasant":12480,"Ġpirate":12481,"Ġpuling":12482,"Ġpensive":12483,"Ġpalsied":12484,"Ġglean":12485,"Ġgilded":12486,"Ġgorgeous":12487,"Ġbehove":12488,"Ġhabiliments":12489,"lexander":12490,"Ġfornication":12491,"Ġeggs":12492,"Ġelbow":12493,"Ġewes":12494,"Ġstalls":12495,"Ġstinted":12496,"Ġkernels":12497,"Ġreversion":12498,"Ġreleased":12499,"Ġdolour":12500,"Ġsemblance":12501,"Ġseventeen":12502,"Ġsurety":12503,"Ġherdsmen":12504,"Ġspotless":12505,"ĠCytherea":12506,"ĠCotus":12507,"Ġvestal":12508,"Ġwheresoe":12509,"icanor":12510,"Ġconverts":12511,"Ġconversation":12512,"Ġconvented":12513,"Ġblasphem":12514,"ĠGuildhall":12515,"Ġcannibals":12516,"ershades":12517,"ĠBreton":12518,"Ġungrateful":12519,"Ġungracious":12520,"Ġuniversal":12521,"Ġunthrifty":12522,"Ġjolly":12523,"Ġproverb":12524,"ĠPilate":12525,"ĠPriami":12526,"Ġplenteous":12527,"Ġenrolled":12528,"Ġoutstret":12529,"ĠAfric":12530,"Ġdiscipline":12531,"Ġexhales":12532,"Ġripest":12533,"Ġadulter":12534,"Ġpresumption":12535,"Ġprescription":12536,"Ġcontempl":12537,"ĠJudas":12538,"Ġendeavours":12539,"Prosperity":12540,"Ġtragedy":12541,"Stirr":12542,"Ġbraggart":12543,"Ġglistering":12544,"Ġmiscarried":12545,"Ġundertaking":12546,"Unworthy":12547,"Ġstreaks":12548,"Ġattentive":12549,"Ġwelcomed":12550,"Ġstrangeness":12551,"comfortable":12552,"Ġtemperately":12553,"Ġinfluences":12554,"Ġquarrelling":12555,"Ġexecuting":12556,"Ġparchment":12557,"Ġvehement":12558,"Ġstirrup":12559,"ĠThinkest":12560,"Ġbarbarism":12561,"Ġcradle":12562,"Ġexpostulate":12563,"spoken":12564,"Plainly":12565,"Ġcauser":12566,"Ġtemporal":12567,"Environed":12568,"Ġcounterpoised":12569,"Despised":12570,"Ġwagoner":12571,"Ġescaped":12572,"apparell":12573,"Ġvanquish":12574,"Ġtransgression":12575,"Ġbasilisk":12576,"Ġambassador":12577,"execution":12578,"Ġsympathy":12579,"Ġdifferences":12580,"Ġunreverent":12581,"Ġencouragement":12582,"Ġmasquers":12583,"Ġclergymen":12584,"Erroneous":12585,"ĠAmazonian":12586,"FRANCISCA":12587,"dangerous":12588,"Ġtumultuous":12589,"Ġsulphurous":12590,"Ġviolets":12591,"Bootless":12592,"Change":12593,"CARDINAL":12594,"Crowns":12595,"Culling":12596,"Certainly":12597,"Counsel":12598,"Drawn":12599,"Delay":12600,"Laugh":12601,"Monday":12602,"Mercutio":12603,"Montague":12604,"Marshal":12605,"Poison":12606,"Pompey":12607,"Pretty":12608,"Sheriff":12609,"Thieves":12610,"Tendering":12611,"TITUS":12612,"Visit":12613,"Vincetino":12614,"better":12615,"delivered":12616,"pillars":12617,"persuasion":12618,"Ġtarget":12619,"Ġaediles":12620,"Ġautumn":12621,"Ġauspicious":12622,"Ġscepter":12623,"Ġsouthern":12624,"Ġmalmsey":12625,"Ġmattock":12626,"instru":12627,"Ġbisson":12628,"Ġbitterest":12629,"Ġfourscore":12630,"Ġdaffodils":12631,"Ġcodpiece":12632,"Ġcottage":12633,"Ġcaterpillars":12634,"Ġcypress":12635,"Ġnimbly":12636,"Ġhuntsmen":12637,"Ġhypoc":12638,"Ġponderous":12639,"Ġphrase":12640,"annibal":12641,"Ġgasping":12642,"Ġgeese":12643,"Ġgillyvors":12644,"Ġghastly":12645,"Ġindex":12646,"Ġinexorable":12647,"Ġinhuman":12648,"Ġhaggard":12649,"learned":12650,"ithmetic":12651,"Ġwealthily":12652,"Ġeastern":12653,"Ġstamps":12654,"Ġstatesman":12655,"Ġlibrary":12656,"Ġsprang":12657,"ĠCheerly":12658,"Ġnephew":12659,"ĠRedeemer":12660,"Ġcomforter":12661,"ĠMortimer":12662,"ĠMONTAGUE":12663,"ĠMamillius":12664,"ĠMEASURE":12665,"ĠMiranda":12666,"ĠGloucestershire":12667,"ĠLibya":12668,"Ġorisons":12669,"ĠSuffolk":12670,"ĠBERKELEY":12671,"Ġarrogance":12672,"Ġlethargy":12673,"Ġunfortunate":12674,"Ġunspeakable":12675,"orthampton":12676,"ĠVarrius":12677,"Ġprolix":12678,"AUGHAN":12679,"Ġencompass":12680,"Ġencounters":12681,"Ġfrivolous":12682,"ĠAbraham":12683,"ĠAutolycus":12684,"ĠYorkshire":12685,"Ġexamples":12686,"agabond":12687,"Ġribbons":12688,"Ġpredominant":12689,"Ġprecipitation":12690,"Ġprenzie":12691,"Ġpredecessors":12692,"ĠFerdinand":12693,"Prodigious":12694,"beguile":12695,"Ġcockerel":12696,"Ġimpregnable":12697,"Ġpatrimony":12698,"Ġdiscourses":12699,"Ġaffianced":12700,"ĠNeapolitan":12701,"Ġincorporate":12702,"Ġcormorant":12703,"Ġcrotchets":12704,"Ġinterchangeably":12705,"Ġprincipal":12706,"Ġpetticoat":12707,"Ġunprepared":12708,"Ġunsuspected":12709,"Ġschoolboys":12710,"Ġeducation":12711,"CHRISTOPHER":12712,"ĠFlavius":12713,"Ġcockatrice":12714,"ĠDeucalion":12715}